unsigned char mnist_dynamic_quantized_28x28_tflite[] = {
	0x24, 0x00, 0x00, 0x00, 0x54, 0x46, 0x4c, 0x33, 0x00, 0x00, 0x00, 0x00,
	0x00, 0x00, 0x00, 0x00, 0x00, 0x00, 0x12, 0x00, 0x1c, 0x00, 0x04, 0x00,
	0x08, 0x00, 0x0c, 0x00, 0x10, 0x00, 0x14, 0x00, 0x00, 0x00, 0x18, 0x00,
	0x12, 0x00, 0x00, 0x00, 0x03, 0x00, 0x00, 0x00, 0xe8, 0x2a, 0x00, 0x00,
	0x7c, 0x19, 0x00, 0x00, 0x64, 0x19, 0x00, 0x00, 0x3c, 0x00, 0x00, 0x00,
	0x04, 0x00, 0x00, 0x00, 0x01, 0x00, 0x00, 0x00, 0x0c, 0x00, 0x00, 0x00,
	0x08, 0x00, 0x0c, 0x00, 0x04, 0x00, 0x08, 0x00, 0x08, 0x00, 0x00, 0x00,
	0x08, 0x00, 0x00, 0x00, 0x0e, 0x00, 0x00, 0x00, 0x13, 0x00, 0x00, 0x00,
	0x6d, 0x69, 0x6e, 0x5f, 0x72, 0x75, 0x6e, 0x74, 0x69, 0x6d, 0x65, 0x5f,
	0x76, 0x65, 0x72, 0x73, 0x69, 0x6f, 0x6e, 0x00, 0x0f, 0x00, 0x00, 0x00,
	0x14, 0x19, 0x00, 0x00, 0x00, 0x19, 0x00, 0x00, 0xc4, 0x18, 0x00, 0x00,
	0x70, 0x18, 0x00, 0x00, 0x8c, 0x17, 0x00, 0x00, 0xf8, 0x0a, 0x00, 0x00,
	0xe4, 0x00, 0x00, 0x00, 0xa0, 0x00, 0x00, 0x00, 0x94, 0x00, 0x00, 0x00,
	0x80, 0x00, 0x00, 0x00, 0x6c, 0x00, 0x00, 0x00, 0x58, 0x00, 0x00, 0x00,
	0x44, 0x00, 0x00, 0x00, 0x30, 0x00, 0x00, 0x00, 0x04, 0x00, 0x00, 0x00,
	0x96, 0xe6, 0xff, 0xff, 0x04, 0x00, 0x00, 0x00, 0x10, 0x00, 0x00, 0x00,
	0x31, 0x2e, 0x35, 0x2e, 0x30, 0x00, 0x00, 0x00, 0x00, 0x00, 0x00, 0x00,
	0x00, 0x00, 0x00, 0x00, 0x00, 0x00, 0x00, 0x00, 0x00, 0x00, 0x00, 0x00,
	0x00, 0x00, 0x00, 0x00, 0x54, 0xe7, 0xff, 0xff, 0x00, 0x00, 0x00, 0x00,
	0x00, 0x00, 0x00, 0x00, 0x00, 0x00, 0x00, 0x00, 0x64, 0xe7, 0xff, 0xff,
	0x00, 0x00, 0x00, 0x00, 0x00, 0x00, 0x00, 0x00, 0x00, 0x00, 0x00, 0x00,
	0x74, 0xe7, 0xff, 0xff, 0x00, 0x00, 0x00, 0x00, 0x00, 0x00, 0x00, 0x00,
	0x00, 0x00, 0x00, 0x00, 0x84, 0xe7, 0xff, 0xff, 0x00, 0x00, 0x00, 0x00,
	0x00, 0x00, 0x00, 0x00, 0x00, 0x00, 0x00, 0x00, 0x94, 0xe7, 0xff, 0xff,
	0x00, 0x00, 0x00, 0x00, 0x00, 0x00, 0x00, 0x00, 0x00, 0x00, 0x00, 0x00,
	0xa4, 0xe7, 0xff, 0xff, 0x00, 0x00, 0x00, 0x00, 0x16, 0xe7, 0xff, 0xff,
	0x04, 0x00, 0x00, 0x00, 0x28, 0x00, 0x00, 0x00, 0xb7, 0x00, 0x00, 0x00,
	0xaa, 0x00, 0x00, 0x00, 0xdf, 0xff, 0xff, 0xff, 0xce, 0xfe, 0xff, 0xff,
	0x13, 0x00, 0x00, 0x00, 0x51, 0xff, 0xff, 0xff, 0xf7, 0xff, 0xff, 0xff,
	0x21, 0x00, 0x00, 0x00, 0xf6, 0x00, 0x00, 0x00, 0xce, 0xff, 0xff, 0xff,
	0x00, 0x00, 0x00, 0x00, 0x00, 0x00, 0x00, 0x00, 0x00, 0x00, 0x00, 0x00,
	0x56, 0xe7, 0xff, 0xff, 0x04, 0x00, 0x00, 0x00, 0x00, 0x0a, 0x00, 0x00,
	0xdd, 0xf5, 0x05, 0x0a, 0x15, 0x0e, 0xfe, 0x10, 0xec, 0x1f, 0xf1, 0x1b,
	0x19, 0xfb, 0x0b, 0x01, 0x15, 0xdc, 0x14, 0x09, 0x0d, 0x17, 0xee, 0x05,
	0xf8, 0xcf, 0x00, 0x01, 0xfe, 0xdf, 0x0e, 0xfc, 0x2a, 0xdb, 0xf5, 0x17,
	0x2c, 0x38, 0x14, 0x17, 0x13, 0x0c, 0xf3, 0xd9, 0x22, 0xf2, 0x00, 0x3d,
	0xfd, 0xbe, 0x07, 0x19, 0x05, 0xdd, 0x2d, 0x05, 0xf1, 0x2f, 0xdb, 0x03,
	0x11, 0x03, 0x44, 0x16, 0x19, 0xf4, 0xd9, 0xd6, 0x23, 0xf5, 0xd0, 0xf8,
	0xe2, 0x40, 0xea, 0x28, 0x01, 0xf0, 0xee, 0xe3, 0x09, 0xbe, 0x14, 0x12,
	0xc7, 0x2b, 0xf1, 0x8b, 0xd5, 0x15, 0x15, 0xf7, 0xfd, 0x2c, 0xda, 0x0f,
	0x0a, 0x14, 0x11, 0x1a, 0xe7, 0x05, 0xec, 0x1c, 0x16, 0x14, 0x01, 0x30,
	0x18, 0xee, 0x00, 0xf3, 0x1a, 0xf7, 0xe0, 0x19, 0xd4, 0xcf, 0x17, 0xc9,
	0x24, 0xd3, 0xb5, 0x04, 0x01, 0x06, 0x0b, 0xf0, 0xf2, 0xf8, 0x86, 0xe4,
	0x03, 0x0c, 0xc6, 0xb7, 0xc3, 0xc6, 0xc8, 0xf3, 0xd4, 0x17, 0xf4, 0xb6,
	0xe4, 0x15, 0x26, 0x2e, 0x07, 0x06, 0xbf, 0xd0, 0x05, 0x05, 0xe4, 0x2e,
	0x17, 0x3f, 0xf6, 0x02, 0x01, 0x00, 0x3a, 0xe9, 0x0f, 0xef, 0xf3, 0x1a,
	0x05, 0x17, 0x03, 0x2f, 0x03, 0xf8, 0xf2, 0x08, 0xe8, 0x81, 0xb9, 0xe8,
	0xd0, 0xc0, 0xda, 0xfb, 0x00, 0x00, 0xd7, 0x06, 0x1a, 0xfd, 0xc7, 0x0a,
	0x00, 0xeb, 0xf0, 0x15, 0x20, 0xe1, 0xeb, 0xc4, 0x04, 0xa2, 0xf8, 0xe0,
	0xb9, 0x16, 0x34, 0x12, 0xf7, 0xe4, 0x0b, 0xe0, 0x1c, 0xed, 0x00, 0x1a,
	0xff, 0x02, 0x1f, 0x16, 0xeb, 0xeb, 0x2f, 0xd9, 0xfb, 0x2b, 0x05, 0x43,
	0x0b, 0x0d, 0x0f, 0xea, 0x2e, 0xf7, 0x2a, 0x99, 0x21, 0xd9, 0x1b, 0x0a,
	0x1a, 0xb6, 0xb8, 0xec, 0xea, 0x01, 0xfc, 0x30, 0x05, 0xfa, 0xf0, 0xfc,
	0x23, 0xf1, 0xa8, 0xe0, 0xeb, 0xb3, 0x02, 0x1c, 0x7f, 0x0e, 0x2b, 0xd2,
	0xfb, 0xce, 0x10, 0x17, 0xe9, 0x16, 0x2b, 0x4e, 0x03, 0x0a, 0xe0, 0x02,
	0x05, 0x32, 0xef, 0x19, 0xf2, 0xb0, 0x44, 0x0e, 0xf8, 0x0f, 0x04, 0x19,
	0x05, 0x59, 0xd0, 0x07, 0xf2, 0x0d, 0xff, 0x03, 0xd1, 0xfa, 0x04, 0x1e,
	0x27, 0x24, 0xfc, 0x27, 0x89, 0x17, 0xd0, 0x04, 0xe6, 0x22, 0xbb, 0xd5,
	0xbe, 0xdf, 0x15, 0x03, 0xea, 0x1b, 0xfc, 0x09, 0x06, 0xe9, 0x26, 0xfd,
	0x2a, 0x48, 0x10, 0x0f, 0x0e, 0xcb, 0x25, 0x08, 0x0f, 0x24, 0xd2, 0x05,
	0xf6, 0xe2, 0x9e, 0x22, 0x1a, 0x2d, 0xda, 0x2e, 0xf8, 0xfa, 0x0a, 0x1e,
	0x27, 0x0b, 0xd0, 0xe8, 0x09, 0xd5, 0x1b, 0x0b, 0xe0, 0x0f, 0xcd, 0xe3,
	0xc2, 0x0b, 0xd6, 0xf3, 0x08, 0x0d, 0x02, 0x39, 0xdf, 0x32, 0xd7, 0xfc,
	0xef, 0x23, 0x0d, 0xd0, 0xda, 0x01, 0xdc, 0x1e, 0xe8, 0x0f, 0xf2, 0x11,
	0xdb, 0x3c, 0x09, 0xf1, 0x24, 0x08, 0xbf, 0xf3, 0x28, 0x97, 0xb1, 0x08,
	0x22, 0x1d, 0xe6, 0x18, 0x19, 0xe4, 0x18, 0xd3, 0x0d, 0xf9, 0xbe, 0xf1,
	0xef, 0x28, 0xf9, 0xfe, 0xf3, 0x26, 0xc3, 0xfc, 0xef, 0x19, 0xcd, 0xde,
	0xf3, 0x07, 0xd4, 0xf5, 0xb8, 0xe3, 0xc6, 0x03, 0xdf, 0xe7, 0xf5, 0xd9,
	0x26, 0xcd, 0xee, 0x27, 0x4b, 0x38, 0xb4, 0xe5, 0x2f, 0x17, 0xf9, 0x00,
	0x4e, 0xa4, 0xe8, 0xf0, 0xdb, 0x18, 0x11, 0x02, 0x07, 0xde, 0xf0, 0x20,
	0x3d, 0x7d, 0x0a, 0xf4, 0x12, 0x06, 0xeb, 0xde, 0xea, 0x98, 0x28, 0xf0,
	0xaf, 0x06, 0x27, 0x38, 0xd8, 0x1e, 0x32, 0x0e, 0xf6, 0xf3, 0xf0, 0x0a,
	0xe7, 0x18, 0x05, 0x45, 0xf7, 0x55, 0x1e, 0xc2, 0xfc, 0xc8, 0xf2, 0xf6,
	0xd8, 0xfa, 0xf3, 0x1d, 0x26, 0x39, 0x19, 0xfc, 0xf2, 0xfc, 0x2b, 0x32,
	0x28, 0x07, 0x00, 0xf1, 0xe8, 0xfa, 0x17, 0xef, 0x27, 0xe3, 0x0c, 0x29,
	0xfd, 0xa3, 0x1c, 0xf7, 0xf8, 0x22, 0x28, 0xd9, 0x1a, 0xf4, 0xfc, 0x1a,
	0x1d, 0xed, 0x24, 0x1b, 0xf2, 0xd0, 0x13, 0xf2, 0x0d, 0xc9, 0x1f, 0xe8,
	0xfa, 0xf6, 0xfa, 0x39, 0x08, 0x7f, 0x01, 0x54, 0x06, 0xf1, 0x13, 0xef,
	0x13, 0xa7, 0xcb, 0x2d, 0x28, 0x15, 0x08, 0x42, 0x00, 0x54, 0xf2, 0x3d,
	0xb3, 0xb8, 0x0a, 0x12, 0xfc, 0xc9, 0xb7, 0x2a, 0x15, 0x2b, 0x22, 0x2c,
	0x14, 0xdd, 0x57, 0xf5, 0xd8, 0x51, 0x0d, 0x34, 0x02, 0xf2, 0x11, 0x3f,
	0x42, 0xc5, 0xe6, 0x00, 0x0c, 0xcc, 0x37, 0xa9, 0xd6, 0xe4, 0x0a, 0x1f,
	0x1f, 0xcd, 0x01, 0x02, 0x2a, 0xed, 0xee, 0x17, 0x16, 0xfe, 0x0e, 0x09,
	0xf4, 0xe3, 0x08, 0x1b, 0xfd, 0x00, 0xd4, 0x2f, 0x25, 0x22, 0xea, 0x03,
	0x06, 0xd6, 0xd5, 0xf2, 0xcc, 0x0e, 0xbe, 0x15, 0xfa, 0xf2, 0xb1, 0x01,
	0xf4, 0xfd, 0xed, 0xeb, 0xf3, 0x9c, 0x03, 0x97, 0xf9, 0x4a, 0x82, 0x1b,
	0x08, 0x0d, 0xf5, 0xfd, 0x37, 0xfb, 0x06, 0xa2, 0xf6, 0xa7, 0x0e, 0xcd,
	0x03, 0x73, 0x26, 0xef, 0xfb, 0x09, 0xed, 0x28, 0x11, 0x04, 0xe9, 0xd6,
	0xf0, 0xf3, 0x03, 0xea, 0x28, 0xdd, 0xf0, 0xe9, 0xa6, 0xc9, 0x18, 0x23,
	0xcd, 0xe9, 0x06, 0xc1, 0x26, 0x9b, 0xf6, 0xe4, 0x02, 0xde, 0x32, 0x59,
	0x19, 0xe9, 0x0a, 0xc6, 0xc1, 0xd5, 0xde, 0xe2, 0xe8, 0xf3, 0xef, 0x0d,
	0x08, 0xee, 0xea, 0xeb, 0xf7, 0x30, 0x14, 0xd1, 0xf4, 0x13, 0x2c, 0xdd,
	0x07, 0xd3, 0xfa, 0x04, 0xfb, 0xe1, 0xf9, 0xe3, 0x00, 0xdb, 0x22, 0xf2,
	0x39, 0xc2, 0x0b, 0x91, 0x1e, 0x27, 0xe6, 0xd9, 0xe0, 0xce, 0x3b, 0xf8,
	0x0a, 0x02, 0x1f, 0xb4, 0x00, 0xbf, 0x2d, 0xa7, 0x12, 0xa7, 0x11, 0xcd,
	0xf6, 0x91, 0x40, 0x46, 0x5c, 0xee, 0x0c, 0xcf, 0xde, 0xef, 0x49, 0xfc,
	0x45, 0x4a, 0x24, 0x1c, 0x2c, 0xc9, 0x56, 0xdf, 0xfc, 0xf0, 0x06, 0xc2,
	0xbf, 0x9e, 0xf6, 0x16, 0x3d, 0xc8, 0x1d, 0x1f, 0x19, 0xbf, 0x36, 0xf8,
	0x39, 0x8f, 0x15, 0xae, 0xe9, 0xf0, 0xf4, 0x1c, 0xe4, 0x85, 0xec, 0x37,
	0x24, 0xde, 0xf1, 0xee, 0xfb, 0xcf, 0xda, 0x12, 0x1f, 0x0a, 0xf5, 0xdc,
	0xef, 0xe1, 0x10, 0x18, 0xa1, 0xe2, 0xb7, 0xb3, 0x8e, 0x2c, 0xc1, 0x19,
	0xd1, 0x30, 0x13, 0xdb, 0xc4, 0xde, 0x28, 0x75, 0xf1, 0x08, 0xf6, 0x16,
	0x36, 0xec, 0xfb, 0xe2, 0x3a, 0x20, 0xcc, 0x2b, 0x39, 0xd6, 0x1f, 0x37,
	0x38, 0x1c, 0xf8, 0x62, 0x02, 0xcf, 0xc0, 0x8d, 0x05, 0x9c, 0x00, 0xf1,
	0xe9, 0xd8, 0xc1, 0xcb, 0x12, 0xcd, 0xfe, 0x1d, 0x17, 0x2d, 0x07, 0xcf,
	0xfd, 0x23, 0xfc, 0x8c, 0xfa, 0xcd, 0x04, 0xd0, 0x0c, 0xa8, 0x09, 0x02,
	0x49, 0x56, 0xfd, 0xf8, 0x22, 0x23, 0xf8, 0x0c, 0xf7, 0xbc, 0x2b, 0x46,
	0xda, 0xe2, 0xb4, 0xff, 0xf8, 0xc1, 0x28, 0xf5, 0x2d, 0xc1, 0x05, 0x29,
	0x07, 0xba, 0x17, 0xcf, 0x30, 0xfb, 0xd7, 0xf2, 0xfb, 0xcf, 0xe6, 0xcd,
	0x0f, 0xbd, 0x18, 0xfc, 0x2d, 0xf5, 0x00, 0xf6, 0xe3, 0xfb, 0x1e, 0xf4,
	0x31, 0xd5, 0xff, 0x13, 0x2d, 0x0e, 0x0c, 0x12, 0x1a, 0xfb, 0x11, 0xec,
	0xda, 0xef, 0x0d, 0x0d, 0xf0, 0xf0, 0xaf, 0xfd, 0xdd, 0x39, 0x36, 0xf1,
	0xc7, 0xa5, 0x1e, 0x11, 0x33, 0x58, 0x0a, 0x61, 0xe0, 0xf2, 0xef, 0x7f,
	0xdc, 0x84, 0x36, 0xef, 0x4f, 0xed, 0x31, 0x16, 0x2c, 0xd2, 0x14, 0x1b,
	0xf9, 0xdd, 0xe4, 0x1a, 0x60, 0xb3, 0xfc, 0xeb, 0xee, 0x0e, 0xd5, 0xf2,
	0xe6, 0x02, 0x1c, 0x17, 0x46, 0x4b, 0x16, 0x37, 0x2b, 0x57, 0x11, 0xd9,
	0x11, 0xc9, 0xc2, 0x00, 0xb8, 0xf1, 0xaa, 0x0f, 0xae, 0x1d, 0xf5, 0x0c,
	0x01, 0x2a, 0xdc, 0xb2, 0xe1, 0xe4, 0xf9, 0xf0, 0x11, 0xf5, 0xf9, 0xfe,
	0xf4, 0xe4, 0x01, 0x13, 0x24, 0x24, 0x17, 0x2f, 0xe5, 0xf2, 0xef, 0x28,
	0x0e, 0xf7, 0xdb, 0x04, 0xf8, 0xe7, 0xec, 0x21, 0xe5, 0x39, 0x1a, 0x07,
	0xfb, 0xc1, 0xe0, 0xf8, 0xe8, 0xe7, 0xd8, 0x00, 0xe2, 0x10, 0xd4, 0x0c,
	0x20, 0x14, 0xf4, 0xf4, 0xf7, 0xee, 0xf0, 0x05, 0xf7, 0x0c, 0xc8, 0xc3,
	0xfa, 0xfd, 0xce, 0xf7, 0x1f, 0xfc, 0x05, 0x00, 0x0f, 0x81, 0xec, 0xe7,
	0xec, 0xe3, 0x17, 0x0c, 0xe7, 0xee, 0xd6, 0xfe, 0x11, 0x09, 0x1a, 0x04,
	0xfa, 0xb2, 0x16, 0x10, 0xfb, 0x0f, 0x08, 0xfa, 0x08, 0xef, 0xea, 0x36,
	0xfa, 0x0e, 0x1b, 0x01, 0x07, 0x00, 0x0a, 0xee, 0x04, 0x16, 0xec, 0x35,
	0xed, 0xf5, 0x0e, 0xfe, 0x03, 0x03, 0x01, 0x23, 0xea, 0xce, 0xec, 0x10,
	0x09, 0xf1, 0xf4, 0xde, 0xd9, 0xfc, 0x0a, 0x01, 0xdb, 0xfc, 0x03, 0x04,
	0xfe, 0x06, 0x0d, 0xee, 0x03, 0xd8, 0x14, 0xef, 0x0d, 0xe0, 0x07, 0xee,
	0x0e, 0x07, 0x0e, 0xf3, 0x19, 0xdf, 0x08, 0x00, 0xf5, 0xe6, 0x12, 0xef,
	0xe7, 0xf1, 0x09, 0x1a, 0xf8, 0xfd, 0xfe, 0xf0, 0xfe, 0x1e, 0xcf, 0x0c,
	0x12, 0x09, 0x01, 0xfa, 0xec, 0x1f, 0x08, 0xe9, 0xf6, 0xfa, 0xf5, 0x04,
	0xf9, 0xb6, 0xe1, 0xfb, 0xfc, 0x17, 0x0f, 0x12, 0xee, 0x05, 0x21, 0xe6,
	0xe2, 0xf8, 0xe8, 0xf1, 0x0c, 0xe7, 0x15, 0x04, 0x00, 0x0c, 0x23, 0x08,
	0x0a, 0xba, 0x26, 0x16, 0x0b, 0x06, 0xe4, 0xe4, 0xed, 0x25, 0xd5, 0xf5,
	0x0b, 0x06, 0x19, 0x0c, 0xe3, 0x01, 0x13, 0xf7, 0xe8, 0xf5, 0xeb, 0x13,
	0x03, 0x0c, 0x12, 0xff, 0x14, 0xf5, 0x09, 0xd7, 0xe2, 0xf3, 0xd8, 0xed,
	0x01, 0xfc, 0xe9, 0x2d, 0x12, 0x8f, 0x11, 0x0d, 0x29, 0xf2, 0x1c, 0xda,
	0x1e, 0x15, 0x0f, 0xe3, 0xce, 0xee, 0x07, 0x04, 0xc9, 0x0e, 0xde, 0xf7,
	0xd8, 0x03, 0xe7, 0xe8, 0xc9, 0xd4, 0xf5, 0x0a, 0xc1, 0x0e, 0x11, 0x1e,
	0x0c, 0xf6, 0x02, 0xf2, 0x02, 0xf3, 0xeb, 0x04, 0x10, 0xd1, 0x06, 0x04,
	0x0f, 0xfc, 0x0f, 0x14, 0xda, 0xb1, 0xff, 0xf9, 0x0d, 0xce, 0xf9, 0xd1,
	0x0f, 0x5c, 0x25, 0xd0, 0xe8, 0xd9, 0x17, 0xed, 0x19, 0x81, 0xfd, 0xb5,
	0x2b, 0x00, 0x10, 0x15, 0x12, 0x10, 0x30, 0xbc, 0x29, 0xa6, 0xff, 0xe7,
	0x0a, 0x3a, 0x37, 0x0a, 0x10, 0x05, 0xf4, 0xe5, 0xd3, 0xdb, 0xda, 0xd6,
	0xba, 0x07, 0x04, 0x18, 0xf8, 0x01, 0x0c, 0xf6, 0xeb, 0xc5, 0xf8, 0xec,
	0xfe, 0x58, 0xff, 0xcd, 0xe1, 0xe9, 0x16, 0x21, 0x1a, 0xcc, 0x00, 0x0f,
	0xe5, 0x28, 0x07, 0xfc, 0x11, 0xdb, 0x0c, 0x0a, 0xf7, 0x05, 0xe9, 0xf0,
	0x0e, 0xcf, 0x0f, 0x09, 0xf0, 0xf0, 0x0c, 0x04, 0x4a, 0xb6, 0x11, 0xf4,
	0x30, 0x16, 0xfa, 0x15, 0xd5, 0xc4, 0x2e, 0x01, 0xf8, 0x07, 0x14, 0x09,
	0x0f, 0xc5, 0x19, 0xe5, 0xfb, 0x00, 0x03, 0x07, 0xf4, 0xde, 0xfc, 0xe1,
	0xee, 0xc2, 0xdb, 0xde, 0xfa, 0xe8, 0x19, 0xea, 0x01, 0x06, 0xf7, 0xfe,
	0x0f, 0xe4, 0x07, 0x26, 0xf0, 0x20, 0x0f, 0xd9, 0x1a, 0x1a, 0xe1, 0x36,
	0xe4, 0x04, 0x06, 0x17, 0x35, 0x26, 0x1a, 0x1d, 0xfc, 0xf7, 0x0e, 0x09,
	0x31, 0xff, 0xcf, 0x19, 0x1b, 0x20, 0x1d, 0x12, 0xee, 0xa1, 0x28, 0x01,
	0x24, 0xeb, 0x1c, 0x3f, 0x02, 0xfd, 0xf7, 0x0c, 0xf8, 0xa0, 0x14, 0xd6,
	0x21, 0xc4, 0x12, 0x27, 0x1f, 0xf3, 0x15, 0x16, 0x06, 0x02, 0xf8, 0x17,
	0x2f, 0x04, 0x19, 0xfe, 0x05, 0x01, 0xe3, 0x03, 0x20, 0x31, 0xe9, 0xfc,
	0x11, 0x17, 0x03, 0x3a, 0x1f, 0x3b, 0xef, 0xfb, 0x17, 0x4e, 0xea, 0xfc,
	0xed, 0x0b, 0xec, 0x22, 0xd9, 0x33, 0xec, 0xfd, 0x02, 0x24, 0xe6, 0xec,
	0xcd, 0xbf, 0xc0, 0x0d, 0x0c, 0xf5, 0xf3, 0x03, 0xee, 0x1c, 0x03, 0x1c,
	0x22, 0x1e, 0xee, 0xf7, 0xcc, 0xe7, 0xb6, 0x22, 0x14, 0xfd, 0xea, 0xec,
	0xd7, 0xd8, 0x22, 0x1f, 0xfb, 0xf2, 0xf3, 0xd9, 0xf6, 0xf1, 0xfc, 0xfb,
	0xf3, 0x2b, 0x03, 0xf0, 0x00, 0xf9, 0x00, 0x21, 0x24, 0xe5, 0xe1, 0xda,
	0x0b, 0xe6, 0x2a, 0xed, 0xf4, 0xf4, 0xfe, 0x3f, 0x05, 0x03, 0x07, 0x01,
	0x28, 0xf3, 0xf1, 0x14, 0x18, 0xf9, 0x04, 0xd7, 0xe1, 0x22, 0xcc, 0x12,
	0xc1, 0xfc, 0x1a, 0x03, 0xfa, 0x26, 0xf9, 0xdf, 0xfa, 0xf3, 0x0e, 0x12,
	0x2b, 0x0d, 0xe3, 0xea, 0xdd, 0xdc, 0x19, 0xfa, 0x0d, 0x04, 0x20, 0x05,
	0xe9, 0x08, 0x15, 0x02, 0x1f, 0x1a, 0xf9, 0xff, 0x15, 0x06, 0xef, 0x02,
	0x11, 0x0f, 0xfc, 0xfa, 0x0e, 0x0c, 0x2f, 0xe8, 0x0c, 0xf7, 0x02, 0x2b,
	0x15, 0xfe, 0x09, 0xf0, 0x03, 0x0f, 0x17, 0x03, 0xda, 0x81, 0xb1, 0xec,
	0xfb, 0x0b, 0xdd, 0xd2, 0xc6, 0xd1, 0x10, 0xed, 0xd2, 0x20, 0xff, 0xd1,
	0xfc, 0x19, 0xc3, 0x0a, 0x24, 0x11, 0xc5, 0xd9, 0xdd, 0xe9, 0xe8, 0xe0,
	0xfc, 0xfd, 0x10, 0xed, 0x11, 0x01, 0x21, 0xe8, 0x06, 0x1a, 0x07, 0xd0,
	0x10, 0x0e, 0xf4, 0x21, 0xe2, 0x0e, 0x12, 0xf1, 0xfd, 0x1c, 0x1c, 0x02,
	0xf7, 0xec, 0xfc, 0xe9, 0x09, 0xe9, 0xed, 0x0b, 0x06, 0x08, 0x07, 0x16,
	0xe5, 0xac, 0xc1, 0xdd, 0xfc, 0x22, 0x13, 0xe1, 0xe8, 0xfc, 0xde, 0xe4,
	0xd3, 0xfa, 0x11, 0xfb, 0x11, 0x03, 0xe7, 0x1f, 0xef, 0xdf, 0x05, 0xd4,
	0x04, 0xdb, 0x0f, 0xee, 0xd1, 0xf0, 0x24, 0x0c, 0x02, 0x0b, 0xd8, 0x0a,
	0xf7, 0xf8, 0x1e, 0xf2, 0x21, 0xe6, 0x17, 0xf4, 0x0a, 0x10, 0x09, 0x04,
	0xf8, 0x0b, 0xdd, 0x16, 0x04, 0xf4, 0x0c, 0xe0, 0xec, 0xf2, 0x07, 0x0e,
	0x10, 0xf9, 0xed, 0xf0, 0x69, 0xbb, 0x4a, 0x0f, 0x06, 0xbc, 0x47, 0xe2,
	0x0e, 0x02, 0xf7, 0xd3, 0xe0, 0x09, 0x5d, 0x0c, 0x07, 0x88, 0x0f, 0x5e,
	0xe5, 0x10, 0x32, 0x0f, 0x10, 0xe5, 0x3e, 0xc1, 0xa5, 0xf5, 0x21, 0xde,
	0xf5, 0xf1, 0xe1, 0xf4, 0x34, 0xf6, 0x2e, 0x35, 0x09, 0xea, 0xe4, 0x04,
	0x01, 0x2e, 0x14, 0x07, 0x2d, 0xc2, 0x18, 0x10, 0xba, 0x16, 0xe7, 0x51,
	0xbe, 0x35, 0xd1, 0x00, 0xc8, 0x31, 0xf8, 0x08, 0x03, 0xe9, 0x3f, 0x1f,
	0xaf, 0xd4, 0x17, 0x16, 0x16, 0xe2, 0x48, 0x1a, 0x19, 0x05, 0xe6, 0xee,
	0xfe, 0x51, 0xf9, 0x00, 0x1e, 0xc2, 0xf0, 0x4e, 0x00, 0xf7, 0x31, 0x41,
	0x31, 0x11, 0xf7, 0x2d, 0x39, 0x1b, 0xed, 0x35, 0x19, 0xf0, 0x1f, 0x25,
	0xe1, 0xee, 0xca, 0xff, 0x18, 0x14, 0x00, 0xb0, 0x17, 0xa9, 0xec, 0x24,
	0x16, 0x04, 0xe0, 0x06, 0xf1, 0xee, 0xeb, 0xf4, 0x06, 0x04, 0x12, 0xd8,
	0xb4, 0x86, 0xf9, 0x09, 0x16, 0xf5, 0xf0, 0x13, 0x3f, 0x6a, 0x3b, 0xfa,
	0x68, 0xf6, 0xef, 0xea, 0xf8, 0x1e, 0x14, 0x1e, 0xf5, 0x32, 0xf4, 0xfe,
	0x04, 0x39, 0xbc, 0x47, 0x33, 0xff, 0xe1, 0xf6, 0xd0, 0x2b, 0xe3, 0xee,
	0xbd, 0xdd, 0x15, 0x33, 0xe3, 0x1c, 0xbc, 0x29, 0xf0, 0xcf, 0xf1, 0xf0,
	0xb3, 0x01, 0x30, 0xeb, 0x19, 0x13, 0x2b, 0xd1, 0xf9, 0xe1, 0x40, 0xe1,
	0x32, 0xdb, 0xca, 0x18, 0x12, 0xc8, 0x02, 0xfb, 0x02, 0x33, 0x46, 0xdc,
	0xd5, 0x3a, 0xb4, 0x34, 0x45, 0x1c, 0x81, 0xed, 0xd1, 0x37, 0xaf, 0xf7,
	0x45, 0x55, 0xfe, 0x0f, 0xa4, 0x01, 0x91, 0x3d, 0xe9, 0x35, 0x8f, 0x32,
	0x0b, 0x2a, 0xf0, 0x29, 0xf4, 0x21, 0xf6, 0x04, 0xbf, 0xe7, 0xdd, 0xd8,
	0x0c, 0xcf, 0xc8, 0xea, 0xd3, 0x27, 0xcf, 0x27, 0x69, 0x21, 0xff, 0xf3,
	0x47, 0x2d, 0x17, 0xdf, 0xe5, 0xfa, 0xe1, 0x03, 0x05, 0xb2, 0xfc, 0xf2,
	0x3e, 0xc5, 0x14, 0xe4, 0xf4, 0xdd, 0xff, 0xdb, 0x13, 0xf9, 0xfb, 0x02,
	0xc9, 0xed, 0x12, 0xab, 0xf0, 0x40, 0xe1, 0x04, 0x39, 0x0b, 0xff, 0xcc,
	0xe9, 0xfa, 0x0e, 0xf3, 0xf1, 0xad, 0xdf, 0xde, 0x05, 0x1a, 0x11, 0xb9,
	0xf9, 0xc5, 0xfd, 0xf8, 0xeb, 0xf3, 0x1b, 0x02, 0xfe, 0xe3, 0x15, 0x08,
	0xd9, 0xd7, 0x1c, 0xff, 0xfc, 0x12, 0x06, 0x02, 0xd6, 0x07, 0x2e, 0xd7,
	0x39, 0x00, 0xe6, 0xe8, 0xf7, 0x33, 0x21, 0x0f, 0xf4, 0x14, 0x9b, 0x52,
	0x12, 0xc4, 0x1b, 0x43, 0xcb, 0xe2, 0x12, 0xd9, 0x19, 0x0f, 0xeb, 0x21,
	0xe3, 0xd8, 0xeb, 0x02, 0xc7, 0xfa, 0x40, 0x33, 0xed, 0xe4, 0xda, 0xe5,
	0x31, 0x15, 0xe9, 0xf1, 0x02, 0x14, 0xc7, 0xfc, 0x4f, 0x0d, 0x08, 0xc3,
	0xbe, 0xab, 0xfc, 0xb5, 0xe7, 0xf1, 0xd8, 0xe2, 0x13, 0x10, 0xf4, 0xe9,
	0x34, 0xf8, 0xe3, 0xe4, 0x04, 0x81, 0xc8, 0xa0, 0x06, 0x18, 0x29, 0x06,
	0xf0, 0xed, 0xc8, 0x02, 0x12, 0x0b, 0xf5, 0xe1, 0xa9, 0xd8, 0xda, 0xf3,
	0xef, 0x13, 0xd3, 0xc3, 0xd4, 0x1f, 0x0d, 0xa7, 0xdc, 0x1c, 0x0a, 0xce,
	0xf7, 0xa0, 0xbb, 0xea, 0xc6, 0xdc, 0xf1, 0xfe, 0x32, 0xe7, 0xf6, 0xe9,
	0x1b, 0xfa, 0xf4, 0xc6, 0x2e, 0xb4, 0x24, 0x14, 0xcd, 0xe1, 0x0e, 0x03,
	0x3d, 0x26, 0xff, 0x06, 0x37, 0x16, 0x19, 0x1c, 0x0c, 0xe6, 0xc7, 0x2a,
	0x26, 0xb2, 0xfc, 0xd2, 0x07, 0xd1, 0xa6, 0xaa, 0xb5, 0xfe, 0x36, 0xfd,
	0xdc, 0xed, 0x05, 0x12, 0xae, 0xce, 0xef, 0xc9, 0xf9, 0xbc, 0x1a, 0xe2,
	0xd0, 0xe9, 0x1f, 0xd3, 0x1e, 0xad, 0xff, 0x0d, 0x02, 0x1c, 0x1c, 0x08,
	0x39, 0xc5, 0x1a, 0x27, 0x00, 0x2b, 0x34, 0x13, 0x25, 0xfd, 0xeb, 0x00,
	0xf5, 0x23, 0xf8, 0xfc, 0x1c, 0xcb, 0xd4, 0x31, 0x2e, 0x1e, 0x0a, 0x22,
	0x2b, 0xeb, 0xd5, 0xfb, 0xe8, 0xff, 0xd1, 0xfa, 0xf4, 0x14, 0xc8, 0xec,
	0x36, 0xf9, 0x05, 0xbe, 0xf4, 0x9f, 0x03, 0x06, 0x1f, 0x21, 0x0a, 0x06,
	0x1f, 0x15, 0xf4, 0xb7, 0x14, 0xe9, 0x06, 0xc3, 0x2a, 0x01, 0xf6, 0xd1,
	0x0a, 0xe8, 0x05, 0xde, 0x0f, 0xfc, 0x01, 0xf3, 0x02, 0x00, 0x1a, 0xfe,
	0x11, 0x1f, 0x17, 0x06, 0x04, 0x06, 0x04, 0xea, 0xe0, 0xd3, 0x1b, 0xf3,
	0xf6, 0x16, 0x25, 0xdd, 0x07, 0xd9, 0x23, 0xed, 0x01, 0x0e, 0x21, 0xdd,
	0xf2, 0x26, 0x0e, 0xec, 0xc2, 0x23, 0x31, 0x28, 0x13, 0x00, 0xed, 0xee,
	0x07, 0x18, 0x02, 0x0f, 0x01, 0x29, 0x25, 0x0d, 0xcf, 0x0e, 0x1b, 0x07,
	0xf5, 0xef, 0xec, 0xff, 0x19, 0xed, 0xf2, 0x11, 0x28, 0xe1, 0x00, 0x0a,
	0x25, 0x1b, 0x05, 0xfd, 0xf8, 0x1e, 0xed, 0xf8, 0x15, 0x18, 0xf1, 0xdb,
	0x0c, 0xea, 0xe3, 0x0d, 0x10, 0x01, 0xe9, 0x01, 0x05, 0x26, 0x14, 0xf4,
	0x1f, 0xfe, 0x25, 0xe0, 0xe9, 0xe5, 0x0a, 0x07, 0xf9, 0xea, 0x19, 0xfa,
	0x0f, 0x14, 0x06, 0xe7, 0xe7, 0xee, 0xf8, 0x07, 0xfe, 0xf9, 0x18, 0xf6,
	0xfa, 0xf0, 0xfe, 0x2a, 0x09, 0xfc, 0xd3, 0xdd, 0x19, 0x12, 0xf4, 0x13,
	0xc5, 0xfe, 0xef, 0xe9, 0x15, 0x05, 0xc9, 0x01, 0xf5, 0x26, 0x08, 0x14,
	0xee, 0x30, 0xc8, 0x0f, 0xe5, 0x24, 0xe0, 0x07, 0x1c, 0x03, 0xd5, 0xf9,
	0x0e, 0xdc, 0x25, 0xfa, 0xfb, 0x17, 0x2f, 0x23, 0x02, 0xd7, 0xfd, 0x36,
	0xf8, 0x05, 0xf2, 0xe4, 0xfb, 0xdf, 0x1a, 0xcb, 0xfe, 0xd5, 0x11, 0x13,
	0xe8, 0xef, 0x24, 0x01, 0xff, 0x16, 0xeb, 0x08, 0xf9, 0x26, 0xdb, 0xe2,
	0xe4, 0xdb, 0xde, 0xea, 0xdc, 0xe0, 0xdc, 0xd3, 0xf5, 0x06, 0xe1, 0x4a,
	0x00, 0x81, 0xe6, 0x3a, 0xd5, 0x1a, 0xfe, 0x0b, 0xf5, 0x06, 0xbf, 0xdb,
	0xfa, 0x09, 0x1c, 0x36, 0x00, 0x00, 0x00, 0x00, 0x66, 0xf1, 0xff, 0xff,
	0x04, 0x00, 0x00, 0x00, 0x80, 0x0c, 0x00, 0x00, 0xe0, 0xc0, 0x0d, 0x03,
	0xc4, 0xdc, 0xcb, 0xc0, 0xc5, 0xac, 0xda, 0x21, 0xf0, 0xb5, 0x33, 0x22,
	0xa5, 0xf3, 0xf8, 0x2b, 0x0a, 0xf4, 0x25, 0x45, 0xd9, 0xcc, 0x12, 0x32,
	0x3b, 0xce, 0xce, 0x07, 0x14, 0xaf, 0x33, 0x18, 0xe7, 0x15, 0x0f, 0x21,
	0x0b, 0xe6, 0xf7, 0xbd, 0x08, 0xc0, 0xdd, 0xde, 0xf5, 0x38, 0xea, 0xfc,
	0xc3, 0xe9, 0xd9, 0x11, 0x17, 0xd5, 0xef, 0x18, 0x32, 0xf7, 0x23, 0xce,
	0x2f, 0x81, 0xf3, 0x00, 0x0b, 0x04, 0x37, 0xdb, 0x16, 0xd0, 0xcd, 0xb6,
	0x25, 0xbf, 0x1e, 0xee, 0xe4, 0x24, 0xed, 0xc8, 0x1a, 0xc5, 0x0a, 0xb0,
	0xd5, 0x05, 0xce, 0x26, 0xb8, 0xbd, 0x07, 0xd0, 0xf3, 0xe0, 0xef, 0x02,
	0x05, 0x9a, 0xc4, 0x1d, 0x0a, 0x90, 0xbb, 0xe9, 0xe3, 0xe6, 0xfa, 0xf5,
	0xc8, 0xd9, 0xf3, 0x49, 0x19, 0x0e, 0xe5, 0xce, 0x2e, 0x19, 0xc0, 0x5a,
	0xdb, 0xe6, 0x2e, 0xa9, 0xea, 0xde, 0xe3, 0xf1, 0xd9, 0x09, 0xfe, 0x15,
	0xdc, 0xf0, 0xd8, 0x02, 0x23, 0xbb, 0xc5, 0xae, 0xdc, 0x1d, 0xd6, 0x24,
	0xf6, 0xb0, 0xeb, 0xea, 0xe8, 0x52, 0xea, 0xca, 0x16, 0xc3, 0xc7, 0xe2,
	0xd5, 0xde, 0x19, 0xd5, 0xf2, 0x48, 0xee, 0xcb, 0xcc, 0xda, 0x09, 0xb9,
	0x0a, 0x0d, 0x0e, 0x23, 0xdb, 0xf9, 0xcf, 0xd9, 0xd7, 0xee, 0xf1, 0xdb,
	0xc2, 0x3a, 0x98, 0x85, 0xb7, 0xb2, 0x04, 0xf9, 0xda, 0xe4, 0xbb, 0xe1,
	0xdb, 0xc0, 0x05, 0x1b, 0xe1, 0xee, 0xc5, 0xfa, 0xc5, 0xd2, 0xd2, 0xbc,
	0xc0, 0x10, 0xec, 0xd4, 0xd1, 0x81, 0x1d, 0xdd, 0xe6, 0x0b, 0xa3, 0xef,
	0x2a, 0xcc, 0xf2, 0xcd, 0xed, 0xd6, 0x00, 0x1a, 0xbc, 0xe2, 0xe3, 0x11,
	0xc2, 0x31, 0xdf, 0xe0, 0x2b, 0xf5, 0x0f, 0xda, 0xb9, 0xdc, 0xdd, 0xa6,
	0xd2, 0xc0, 0xfe, 0xfe, 0xf8, 0xce, 0xfa, 0xf1, 0xe0, 0xd0, 0xdb, 0xc7,
	0x1e, 0x11, 0xd6, 0xf8, 0x21, 0xda, 0xf7, 0x00, 0x02, 0xcc, 0xea, 0x12,
	0xf9, 0x08, 0xe6, 0xcd, 0xd6, 0x01, 0xf9, 0x10, 0x22, 0xcd, 0x11, 0xb3,
	0x08, 0xf1, 0xcb, 0xe4, 0xdf, 0xc8, 0xf9, 0xab, 0xd4, 0xd7, 0xe9, 0x04,
	0x0b, 0xca, 0x02, 0xf9, 0xf7, 0xfd, 0xd5, 0xeb, 0xfa, 0x02, 0xd7, 0x08,
	0xee, 0xed, 0xe2, 0xd1, 0xfc, 0xc9, 0xd8, 0xf5, 0x16, 0x26, 0xd4, 0xdb,
	0xd7, 0xdd, 0xfb, 0x1d, 0xfe, 0xae, 0x1b, 0xee, 0x24, 0x1a, 0xc8, 0x1a,
	0xf5, 0xee, 0xed, 0xe2, 0x1c, 0xa9, 0x09, 0xea, 0x23, 0x10, 0x0b, 0xeb,
	0xc5, 0xc6, 0xe9, 0x1e, 0xf4, 0xed, 0xb4, 0xdf, 0xe1, 0xcc, 0xfe, 0xf0,
	0xdc, 0x10, 0xeb, 0xd0, 0xf8, 0xc7, 0x03, 0xfb, 0x0d, 0xc0, 0x2c, 0x15,
	0xc1, 0x3e, 0xe6, 0x15, 0xee, 0xb4, 0xfc, 0xd4, 0xdb, 0xea, 0xd1, 0xb1,
	0xe5, 0x0d, 0xd3, 0xe3, 0xd3, 0xc6, 0xe1, 0xfa, 0xdd, 0xf5, 0xd8, 0xf0,
	0xdc, 0xbb, 0xa0, 0xf9, 0xcc, 0xa0, 0x0a, 0xe2, 0xba, 0xfa, 0xdd, 0xef,
	0xd9, 0x14, 0xaf, 0xd6, 0x23, 0xed, 0xcf, 0x2f, 0xf3, 0xc8, 0xd6, 0x06,
	0x40, 0x30, 0xdd, 0xd8, 0x07, 0x1a, 0xd0, 0xb2, 0xf4, 0x28, 0xe1, 0xae,
	0xd9, 0x06, 0xea, 0xf9, 0xf3, 0x3a, 0xfa, 0x12, 0x04, 0x0a, 0x0d, 0x04,
	0x0d, 0x14, 0x3f, 0x31, 0xcd, 0xbb, 0x19, 0xef, 0x15, 0x2b, 0xa2, 0xf3,
	0xe5, 0xdb, 0xd5, 0xf4, 0x34, 0xe3, 0xf8, 0x81, 0xef, 0x9e, 0xd3, 0xdd,
	0x2c, 0x04, 0x21, 0x99, 0xc8, 0xc5, 0xdc, 0xba, 0x2a, 0xef, 0x14, 0x9a,
	0xec, 0xc2, 0xce, 0xf6, 0xd7, 0x23, 0x3e, 0xc8, 0x1c, 0xfd, 0x58, 0xd8,
	0xab, 0x20, 0x5b, 0xc5, 0x22, 0xc4, 0x2c, 0xd7, 0x92, 0xe6, 0x25, 0xbb,
	0x45, 0xda, 0xeb, 0x2a, 0x05, 0xbd, 0xc2, 0xb5, 0xdd, 0xc1, 0x0a, 0x44,
	0x32, 0x97, 0x8f, 0xd0, 0xcf, 0x8e, 0x09, 0xf4, 0xed, 0xad, 0xb2, 0xdd,
	0x2b, 0x32, 0xfc, 0x0c, 0xa2, 0xe8, 0x16, 0xc6, 0x16, 0xe9, 0x35, 0x1d,
	0x19, 0xb5, 0x1a, 0xe7, 0x0e, 0xe0, 0x0c, 0xde, 0xd3, 0x1f, 0x17, 0x06,
	0x13, 0x15, 0xcf, 0x2e, 0xdb, 0xeb, 0xff, 0xee, 0x45, 0xe4, 0xf7, 0x23,
	0xf3, 0xe6, 0xee, 0xe2, 0xce, 0x07, 0x3e, 0x10, 0x03, 0x0d, 0xdb, 0x39,
	0x0e, 0x28, 0xdc, 0xbd, 0xfa, 0x31, 0x16, 0x15, 0x12, 0x1e, 0xd0, 0x0d,
	0x02, 0x13, 0xed, 0x24, 0x48, 0xf2, 0xd1, 0x1c, 0x31, 0xf6, 0x05, 0x3c,
	0x15, 0xf3, 0xd2, 0x14, 0xf1, 0xf2, 0x16, 0xe0, 0x0c, 0xe8, 0x0f, 0xff,
	0x9f, 0xb7, 0x1d, 0x00, 0x18, 0x05, 0xa7, 0x1f, 0xfc, 0xd0, 0x27, 0xba,
	0xb8, 0x09, 0xfc, 0x06, 0xba, 0xd0, 0xb4, 0x94, 0xf7, 0x83, 0xe7, 0xce,
	0x2a, 0xfa, 0x23, 0x08, 0xe8, 0xe2, 0x2a, 0x63, 0xea, 0x0c, 0x22, 0xea,
	0x3c, 0x12, 0xa1, 0x14, 0xdc, 0x01, 0x18, 0x04, 0x19, 0x2b, 0xfa, 0xdc,
	0x10, 0xdf, 0xf7, 0xf1, 0xd3, 0xf2, 0xd2, 0x2e, 0xbd, 0xcf, 0x0b, 0x02,
	0xe9, 0x2d, 0x1c, 0x13, 0xce, 0x2b, 0xad, 0xd5, 0xed, 0x09, 0x37, 0x1e,
	0x23, 0x12, 0xa0, 0x97, 0x19, 0xda, 0x81, 0xe1, 0xf7, 0xf6, 0xda, 0x28,
	0xd6, 0xaf, 0x90, 0x26, 0xd5, 0xdb, 0x95, 0x19, 0xb5, 0x5d, 0xf4, 0xd4,
	0x0f, 0xc5, 0xf6, 0xa6, 0xd4, 0xfb, 0xee, 0x22, 0x9e, 0xf1, 0x12, 0xac,
	0xda, 0x18, 0x2d, 0xf3, 0xc6, 0xf3, 0x16, 0x05, 0x23, 0xdb, 0xee, 0x15,
	0x40, 0xf1, 0xe0, 0xfd, 0x2e, 0xc8, 0xcb, 0x07, 0xad, 0x0b, 0xdf, 0x25,
	0xf6, 0xb3, 0xec, 0xcc, 0xbe, 0xe1, 0xc9, 0x08, 0xf8, 0xf5, 0xd1, 0xce,
	0x03, 0xf1, 0x2c, 0xc1, 0xfc, 0xeb, 0xf8, 0x07, 0xb0, 0xf4, 0x49, 0x0a,
	0x3b, 0x11, 0xe8, 0x2a, 0x48, 0x1f, 0xa0, 0x68, 0x42, 0xd5, 0xf5, 0xd1,
	0xef, 0x03, 0xd7, 0x07, 0x4a, 0xdf, 0x04, 0x1a, 0xfb, 0xf3, 0xbd, 0xdb,
	0xcc, 0xa3, 0xfe, 0x17, 0x75, 0xb9, 0xe6, 0xc3, 0xa6, 0x0f, 0x52, 0xec,
	0x22, 0xe0, 0xf0, 0xf5, 0x52, 0x19, 0xf2, 0x00, 0xec, 0x3e, 0xcb, 0xc1,
	0xf2, 0x21, 0x0d, 0x31, 0x09, 0xc2, 0xbf, 0x0e, 0x37, 0xd1, 0xf9, 0xeb,
	0xcf, 0xee, 0xc1, 0xc5, 0xb6, 0x04, 0xd2, 0x1f, 0xcf, 0xaf, 0xe1, 0x22,
	0xa3, 0xac, 0xe7, 0xd6, 0xb4, 0x00, 0xc1, 0xb7, 0x38, 0xc7, 0xb1, 0xd3,
	0x24, 0x21, 0x2c, 0x9f, 0x34, 0x36, 0x32, 0x12, 0xb7, 0xf6, 0x33, 0xe2,
	0xd0, 0x1a, 0x3f, 0xdb, 0xda, 0xf5, 0xcb, 0x9d, 0xae, 0xc7, 0x25, 0x0d,
	0xec, 0xbf, 0x81, 0xdc, 0x0c, 0x17, 0xeb, 0xeb, 0xca, 0x9d, 0xc5, 0x14,
	0xc9, 0x1f, 0xeb, 0x15, 0x13, 0x98, 0xb8, 0xf0, 0xda, 0x14, 0xe8, 0xae,
	0x16, 0x4e, 0x12, 0xa6, 0xe5, 0x26, 0xff, 0xfb, 0xe5, 0x25, 0xf9, 0xbb,
	0xbc, 0x04, 0xaf, 0x10, 0xe0, 0x13, 0xa4, 0xb9, 0xc0, 0xd5, 0x0c, 0x29,
	0x27, 0xc0, 0xc5, 0xf8, 0xe2, 0xe0, 0x15, 0xe9, 0x0b, 0xba, 0x32, 0xf2,
	0xec, 0x05, 0xfe, 0xc5, 0xcf, 0xe4, 0xd4, 0xf0, 0xbd, 0xc5, 0xfd, 0xd3,
	0xbe, 0xdd, 0x14, 0xb9, 0xa7, 0xbe, 0xa9, 0xfb, 0xc4, 0xbb, 0xe3, 0xe9,
	0xf1, 0xde, 0xb7, 0x0e, 0xca, 0xe5, 0x9f, 0x36, 0x42, 0xf1, 0x35, 0xb6,
	0xba, 0xda, 0xf7, 0x13, 0xb7, 0xc5, 0xce, 0x0b, 0xfb, 0xaa, 0xf0, 0xf3,
	0xa8, 0xd9, 0xfe, 0x17, 0x2d, 0xb7, 0xde, 0xd0, 0x0c, 0x1c, 0xdc, 0xed,
	0xa8, 0xd7, 0x1d, 0x2e, 0xf5, 0xb7, 0xb4, 0x26, 0xee, 0xa9, 0xeb, 0xe2,
	0x14, 0xf4, 0xd2, 0x0e, 0xc8, 0x2e, 0x17, 0x35, 0xcb, 0xea, 0x27, 0xce,
	0xd4, 0x2d, 0xb3, 0x14, 0x32, 0xef, 0x0c, 0xc3, 0xc0, 0x2a, 0xa6, 0xf0,
	0xea, 0xd0, 0xcd, 0x0a, 0xe7, 0xe7, 0xfc, 0x3d, 0xe3, 0xa6, 0x07, 0xf6,
	0x81, 0xf3, 0x89, 0xcb, 0xe7, 0xe6, 0x0b, 0xf2, 0xd7, 0x30, 0x0b, 0xf4,
	0x06, 0xd0, 0xf9, 0xcf, 0xeb, 0xd4, 0x01, 0x04, 0xe4, 0xd6, 0xdd, 0x0d,
	0xee, 0xde, 0xb4, 0xfc, 0xdc, 0xef, 0xdb, 0x0d, 0xfd, 0x0d, 0xc3, 0x02,
	0xf4, 0x07, 0xf5, 0xd6, 0xac, 0xd2, 0xed, 0xd8, 0x0b, 0x0e, 0x0e, 0xcc,
	0xe7, 0x2a, 0xc7, 0xe5, 0xd6, 0x2e, 0xef, 0xea, 0xc3, 0x00, 0xd7, 0xea,
	0x00, 0xfe, 0x17, 0x30, 0xf9, 0xd3, 0xd8, 0xc8, 0x0e, 0xe7, 0x02, 0x05,
	0xd0, 0xd1, 0xc0, 0x0b, 0xd7, 0xe0, 0xed, 0xed, 0x07, 0x18, 0xd3, 0xd7,
	0xfc, 0x15, 0xcb, 0xf1, 0xe3, 0x04, 0xb7, 0xd7, 0xae, 0xef, 0xc5, 0xd8,
	0xc4, 0xd4, 0xe9, 0x06, 0xce, 0xf1, 0x13, 0xfc, 0xbb, 0x24, 0xff, 0x22,
	0xde, 0xe7, 0x17, 0xed, 0x14, 0xc8, 0xc6, 0xcf, 0x10, 0x29, 0x2a, 0x09,
	0xfd, 0xdc, 0xe3, 0xc0, 0xe0, 0x10, 0xe4, 0xb8, 0x12, 0xdf, 0xe5, 0xc4,
	0xc5, 0xea, 0x93, 0xf9, 0xf0, 0xba, 0xfc, 0x0e, 0xde, 0x35, 0xf9, 0xea,
	0xcf, 0x17, 0xdb, 0x0a, 0xeb, 0x4d, 0xd8, 0xee, 0xfb, 0x08, 0xfe, 0x29,
	0xcb, 0x27, 0x15, 0x1b, 0x42, 0xe2, 0xb8, 0xf5, 0xe7, 0x32, 0x10, 0xd1,
	0xd4, 0x0a, 0xf1, 0x40, 0x1d, 0xbc, 0x04, 0xca, 0xbd, 0xd8, 0xe6, 0x0b,
	0x0a, 0xf9, 0xc5, 0x04, 0xc3, 0x12, 0xda, 0x1d, 0xf8, 0x0f, 0x15, 0xdc,
	0xd8, 0x05, 0x2f, 0x09, 0xdf, 0xef, 0x37, 0x01, 0xe2, 0x11, 0xed, 0xf3,
	0xf7, 0xf0, 0x1c, 0x26, 0x20, 0xc3, 0x51, 0x07, 0x0e, 0x21, 0x09, 0x3d,
	0xf9, 0xf5, 0x28, 0xdb, 0x55, 0xd4, 0xf3, 0x05, 0xf8, 0x0f, 0x00, 0x24,
	0x56, 0xe8, 0xfa, 0x35, 0x2f, 0x11, 0xfe, 0x22, 0x38, 0xfd, 0xc6, 0x50,
	0xb0, 0xfe, 0x22, 0xbd, 0x1e, 0x2e, 0x08, 0xfa, 0xc2, 0xf3, 0x10, 0xff,
	0xd2, 0xd2, 0xb6, 0xb5, 0xb2, 0xa2, 0x3d, 0xcf, 0x3a, 0xd9, 0x04, 0xd5,
	0xfc, 0xbb, 0x38, 0xe3, 0x37, 0xe3, 0xe8, 0xfb, 0x4d, 0xe4, 0x04, 0xef,
	0x12, 0x1c, 0xea, 0xf2, 0x2d, 0x17, 0x49, 0xe2, 0x08, 0xe0, 0xf9, 0x16,
	0xd3, 0xea, 0x05, 0xf6, 0xce, 0xdb, 0xa0, 0x1a, 0x02, 0x16, 0xce, 0x11,
	0x87, 0x0e, 0xf6, 0x1b, 0x19, 0xcf, 0x33, 0x9e, 0x0c, 0x40, 0x69, 0xed,
	0x0d, 0xdb, 0xe3, 0xe0, 0xc9, 0x01, 0x2e, 0xb8, 0x2f, 0x02, 0xc0, 0x12,
	0x01, 0xee, 0xf1, 0x00, 0xd1, 0x11, 0xf4, 0x1f, 0xd6, 0x0c, 0xe2, 0x23,
	0xf9, 0x31, 0xbe, 0xa8, 0xb6, 0x1b, 0xf5, 0x14, 0xee, 0x90, 0x81, 0x0b,
	0xc1, 0x11, 0x17, 0xef, 0xfd, 0xe8, 0xe4, 0x06, 0xf2, 0xf4, 0xd0, 0xbb,
	0xa9, 0xf5, 0xd5, 0xe9, 0x21, 0xfb, 0xf9, 0xd8, 0x1f, 0x2b, 0xd5, 0xce,
	0x0f, 0x23, 0x06, 0x2b, 0x03, 0xf7, 0xfe, 0xd2, 0x05, 0x38, 0xa7, 0x09,
	0xf9, 0xff, 0x2a, 0x20, 0xf2, 0x09, 0xc4, 0xdf, 0xea, 0xfa, 0x3e, 0x13,
	0xbb, 0xc8, 0xc5, 0xdf, 0xea, 0xee, 0xff, 0x18, 0x06, 0xbd, 0xd3, 0x2c,
	0x17, 0x23, 0x11, 0xac, 0xd6, 0xb3, 0xe1, 0x21, 0xea, 0xe9, 0xed, 0xb5,
	0xc5, 0x03, 0xf5, 0x3b, 0x47, 0xf2, 0x3d, 0x87, 0xd3, 0xad, 0x33, 0x15,
	0x32, 0xe1, 0x13, 0xde, 0xd4, 0xc5, 0x31, 0x2c, 0x2f, 0x03, 0x0d, 0xd9,
	0xca, 0xcd, 0xcf, 0xc5, 0xef, 0xd8, 0xc2, 0xee, 0xf5, 0xf5, 0xf9, 0xec,
	0xed, 0x04, 0xe7, 0xe7, 0xed, 0x0b, 0x00, 0x35, 0x0d, 0xbe, 0xf6, 0xba,
	0x1b, 0xf8, 0x10, 0x13, 0x22, 0x91, 0xc1, 0xca, 0xf3, 0x04, 0x27, 0x20,
	0x0c, 0xf2, 0xb6, 0xec, 0xd9, 0xe0, 0x0b, 0x00, 0x89, 0x81, 0xe2, 0xcf,
	0x1b, 0xfe, 0x26, 0xf1, 0xad, 0xd1, 0x28, 0x9f, 0x1d, 0xc9, 0x1a, 0x00,
	0xeb, 0x97, 0x10, 0xe6, 0x1f, 0xef, 0x42, 0xf5, 0xf9, 0xbf, 0x26, 0xe0,
	0xfb, 0x1c, 0xf3, 0xf2, 0xf7, 0xf5, 0x0d, 0xf8, 0x05, 0x17, 0x23, 0xd9,
	0xed, 0xac, 0xda, 0xbd, 0x13, 0xe8, 0xfd, 0xea, 0x16, 0xa3, 0x20, 0xf2,
	0xec, 0xed, 0xe1, 0xd1, 0xec, 0xf4, 0x2f, 0xf6, 0x1c, 0x45, 0x0d, 0x1c,
	0x09, 0xe3, 0xec, 0x12, 0x12, 0xfe, 0xc8, 0xde, 0xe9, 0x0f, 0x04, 0x12,
	0xe7, 0x17, 0xe3, 0xff, 0x06, 0xeb, 0x5c, 0x0f, 0xf7, 0xfb, 0x03, 0x29,
	0x09, 0xe9, 0x3e, 0xd9, 0x00, 0x0e, 0x18, 0x1d, 0x25, 0x0e, 0x4e, 0xc5,
	0x1e, 0x08, 0x42, 0xd8, 0xf9, 0x03, 0xd3, 0xfb, 0x25, 0x99, 0xfd, 0x00,
	0x9d, 0xdc, 0xe7, 0xf6, 0xfd, 0xd6, 0x04, 0xe3, 0xdb, 0xd4, 0x08, 0xdd,
	0x00, 0xcb, 0xd8, 0xde, 0xf7, 0xc0, 0x18, 0xf7, 0xc9, 0x35, 0x3c, 0x0d,
	0xe8, 0xad, 0x38, 0xe4, 0x08, 0x93, 0x50, 0x1c, 0xea, 0xb7, 0x61, 0xd8,
	0x2e, 0xc5, 0x15, 0x1c, 0x36, 0xe3, 0xe9, 0xf2, 0xc2, 0xa3, 0x11, 0xf8,
	0xfb, 0x26, 0x39, 0xe7, 0x91, 0xed, 0x00, 0xe5, 0xf5, 0xee, 0x22, 0xaf,
	0xbc, 0xfd, 0x29, 0x07, 0x19, 0x0a, 0x49, 0xb3, 0x03, 0xef, 0x47, 0x17,
	0xc0, 0x1d, 0x23, 0xcf, 0xc1, 0xe7, 0x55, 0xe5, 0xeb, 0xd8, 0x18, 0xbe,
	0x60, 0xce, 0x1f, 0xfd, 0xc2, 0xc6, 0xe2, 0xfb, 0x1f, 0x93, 0xc8, 0x1e,
	0xc5, 0xc7, 0xee, 0xc6, 0x40, 0xad, 0xee, 0x49, 0xd6, 0xc3, 0xec, 0xc3,
	0x35, 0xf1, 0xdf, 0x0f, 0xcb, 0x81, 0xfd, 0x23, 0x29, 0xe1, 0xd9, 0x5c,
	0xd9, 0x9d, 0x6d, 0xc5, 0xfd, 0xed, 0x03, 0x02, 0xff, 0xde, 0xdf, 0x04,
	0x1a, 0xb4, 0xe3, 0xd7, 0xeb, 0xfc, 0xf8, 0x41, 0x34, 0x03, 0xf0, 0x33,
	0x39, 0x16, 0x08, 0xbc, 0x39, 0xf9, 0x09, 0x05, 0x6d, 0x0c, 0x27, 0xd9,
	0xf8, 0x09, 0x13, 0x19, 0x0f, 0xdd, 0x26, 0xb2, 0x04, 0xcc, 0x01, 0x04,
	0x28, 0xcf, 0x11, 0xe2, 0x21, 0xdf, 0xc2, 0x01, 0xc7, 0x23, 0x91, 0xc7,
	0xd4, 0xa9, 0xd4, 0x06, 0xcc, 0xdc, 0x46, 0x1a, 0xf3, 0x00, 0xcb, 0xab,
	0x08, 0xb0, 0x24, 0xe3, 0x28, 0xd0, 0x01, 0x29, 0x85, 0x5e, 0xcb, 0x78,
	0xdb, 0xd3, 0xcf, 0xe9, 0xe9, 0xd1, 0xda, 0xc4, 0xdc, 0x15, 0xd1, 0xce,
	0xf1, 0xc9, 0xd5, 0xf2, 0xe8, 0x02, 0xb5, 0xbf, 0x0a, 0x14, 0x09, 0xdb,
	0x21, 0xe8, 0xcc, 0xeb, 0x0d, 0xd1, 0x0c, 0xfa, 0xc7, 0xf9, 0xf7, 0xe4,
	0xfa, 0x14, 0xa8, 0xfc, 0xd0, 0x01, 0xeb, 0xe4, 0x0e, 0xdc, 0x0b, 0xcd,
	0x0b, 0xdd, 0xb7, 0xb7, 0xd9, 0xf1, 0xee, 0xc7, 0xfe, 0x27, 0x1f, 0x18,
	0x0b, 0xe6, 0x13, 0xde, 0xce, 0xf6, 0xde, 0x14, 0xe2, 0x27, 0xad, 0xf4,
	0x11, 0xcc, 0x28, 0x0f, 0xff, 0xec, 0xed, 0x81, 0xdd, 0xf0, 0x14, 0xcf,
	0x12, 0xbb, 0x02, 0xf3, 0x00, 0x2e, 0x14, 0xf2, 0xfd, 0xfd, 0xb6, 0xa1,
	0x10, 0x2d, 0x2c, 0x10, 0x2f, 0xe0, 0xee, 0xce, 0x2f, 0xed, 0xff, 0xf3,
	0xe7, 0xe0, 0x40, 0x2a, 0xd4, 0xd4, 0x08, 0xd4, 0x88, 0xce, 0xf2, 0x03,
	0x00, 0x19, 0xc8, 0x2d, 0x31, 0xec, 0xc1, 0x1c, 0x0b, 0x1f, 0xfd, 0xca,
	0x09, 0xfe, 0xfd, 0x0c, 0xf2, 0xb3, 0xa5, 0xf0, 0xca, 0xf0, 0xe4, 0x01,
	0xb9, 0xc7, 0x06, 0x13, 0x98, 0x1e, 0xdd, 0xc9, 0xad, 0xcc, 0xf6, 0xe3,
	0x17, 0xf6, 0xdf, 0xfb, 0x00, 0x0f, 0xe6, 0xf8, 0x22, 0x14, 0xa0, 0x2d,
	0xe7, 0x1f, 0x25, 0x18, 0xc5, 0xfa, 0xbd, 0x00, 0x1f, 0xf4, 0x19, 0xec,
	0xc0, 0xf7, 0xed, 0xdb, 0xd8, 0xc5, 0x06, 0xb8, 0x01, 0xd4, 0x4d, 0x2a,
	0x99, 0xe3, 0x22, 0x05, 0xcf, 0x1f, 0x4a, 0xe9, 0x15, 0xdd, 0xe9, 0x2a,
	0x07, 0x00, 0x25, 0xf9, 0x06, 0x1a, 0x25, 0x28, 0xf7, 0x06, 0x40, 0xc8,
	0x1f, 0x1d, 0x3a, 0xc6, 0x23, 0x03, 0x3b, 0xe6, 0x26, 0xc6, 0x24, 0xd6,
	0xdb, 0x31, 0x08, 0xfe, 0xec, 0xbb, 0x01, 0xf5, 0xa6, 0x05, 0xfa, 0x03,
	0x1f, 0xae, 0x0f, 0xdf, 0xd6, 0xd3, 0x55, 0xfd, 0x27, 0xb3, 0xd5, 0xfd,
	0xe5, 0x0a, 0x69, 0xb4, 0x1a, 0x81, 0xe1, 0xfd, 0x23, 0x28, 0xdf, 0xda,
	0xe2, 0xbd, 0x07, 0xfa, 0xf9, 0xf6, 0xdd, 0xe8, 0xdd, 0xc2, 0xe4, 0xdc,
	0x0a, 0xef, 0xeb, 0xe3, 0xe6, 0x93, 0xe3, 0x09, 0x43, 0xcb, 0xd4, 0xd9,
	0x95, 0xfb, 0x26, 0xf9, 0x1a, 0x0c, 0x12, 0xe8, 0xc0, 0xec, 0x55, 0xeb,
	0x03, 0x14, 0xe8, 0xda, 0xe8, 0xd2, 0x0b, 0x04, 0x27, 0x2d, 0xca, 0xaf,
	0xb5, 0xcc, 0xbb, 0x20, 0xc0, 0x16, 0xa3, 0x04, 0x1c, 0x20, 0xe1, 0x0c,
	0xc1, 0x13, 0xe5, 0x48, 0x3c, 0xf5, 0xed, 0x0a, 0x0a, 0xc8, 0x1d, 0x24,
	0x07, 0xe9, 0x0a, 0x1c, 0xe0, 0xb8, 0xa3, 0x12, 0xd6, 0xf1, 0x13, 0xe8,
	0xc5, 0xaf, 0xe9, 0x10, 0xe2, 0xd4, 0xeb, 0xde, 0xb0, 0x26, 0xa7, 0xd3,
	0x21, 0xe6, 0xdd, 0x23, 0xd0, 0x32, 0xfe, 0xfa, 0xf7, 0xca, 0xef, 0x1b,
	0xfb, 0xe9, 0xf4, 0xf4, 0xef, 0xbd, 0xfa, 0xe4, 0x0b, 0x09, 0x02, 0xbf,
	0xcd, 0x31, 0xcb, 0x35, 0xf4, 0x22, 0xd8, 0x0d, 0xdd, 0xbe, 0x14, 0xf0,
	0x23, 0xd2, 0x21, 0x1f, 0x42, 0xd4, 0xe6, 0x57, 0x04, 0x2c, 0xb3, 0x1d,
	0x10, 0xb6, 0xea, 0x43, 0xe8, 0x02, 0xa8, 0x25, 0x22, 0x9a, 0xde, 0x4c,
	0xe4, 0xfa, 0xae, 0x01, 0xcb, 0xc7, 0x95, 0x0e, 0x0b, 0xc4, 0xe8, 0xc7,
	0xb4, 0xf9, 0xe0, 0xd3, 0x00, 0x04, 0xb1, 0xf2, 0x30, 0x2e, 0xe6, 0xe9,
	0x07, 0xf3, 0xae, 0xfe, 0x1d, 0x27, 0xed, 0xcd, 0x04, 0x3e, 0xc6, 0x10,
	0x0e, 0xb0, 0xb7, 0xcb, 0xf6, 0x2d, 0xd1, 0x27, 0xde, 0x0e, 0xc3, 0xae,
	0xb9, 0xdc, 0xa9, 0xbc, 0x93, 0xef, 0xcb, 0xdf, 0xbf, 0xdd, 0xd7, 0x08,
	0xec, 0xaf, 0x13, 0xb9, 0x0a, 0x0a, 0x0e, 0x29, 0x24, 0x2e, 0xff, 0xb3,
	0xff, 0xcb, 0xdd, 0x17, 0x22, 0xdb, 0xe4, 0xe9, 0x38, 0x04, 0xd4, 0x42,
	0xf7, 0xd7, 0x37, 0x33, 0x0a, 0xfc, 0x81, 0xe1, 0xf4, 0x1c, 0x3f, 0x1d,
	0x13, 0xe7, 0xb3, 0x12, 0xa7, 0xf8, 0x17, 0xc9, 0xf5, 0x28, 0x1e, 0xd9,
	0xed, 0x0f, 0x25, 0xd5, 0xd1, 0x1d, 0x0d, 0x1a, 0xf1, 0x2c, 0x07, 0x2d,
	0xa8, 0xe3, 0xe4, 0xf1, 0x18, 0x2b, 0x4a, 0x04, 0x1c, 0x0d, 0xde, 0x10,
	0xd7, 0x54, 0x04, 0x07, 0x03, 0x93, 0xe5, 0x3c, 0x2d, 0xee, 0x19, 0xea,
	0xc4, 0xb2, 0xfe, 0x00, 0xda, 0x56, 0xfb, 0xf8, 0xea, 0xcd, 0x06, 0xf2,
	0x14, 0x1b, 0x0a, 0x0a, 0x1a, 0x00, 0x1e, 0x3f, 0xd8, 0xc9, 0x8a, 0x10,
	0xf8, 0xe1, 0x11, 0x2e, 0x13, 0x10, 0xb0, 0xe4, 0x9d, 0x56, 0xfe, 0x28,
	0xe1, 0x1a, 0xbb, 0xd1, 0xfc, 0xd7, 0x06, 0xa0, 0x29, 0x01, 0x00, 0xf1,
	0xf1, 0xf1, 0x12, 0x32, 0x07, 0xcc, 0x0b, 0xf8, 0xf3, 0x2e, 0x39, 0x3e,
	0x15, 0xd7, 0x18, 0x07, 0xd5, 0x37, 0xd9, 0x32, 0xf7, 0xfa, 0xeb, 0xfd,
	0x03, 0x16, 0xcb, 0xd5, 0xd6, 0xac, 0x95, 0xfa, 0xde, 0xf0, 0x2f, 0x81,
	0x1d, 0xb2, 0x09, 0xea, 0x1f, 0x1c, 0x04, 0xbe, 0xe5, 0xef, 0x16, 0xfc,
	0x09, 0x29, 0xf8, 0xcc, 0xc5, 0x14, 0x1a, 0xd7, 0xc5, 0x2d, 0x9b, 0xa4,
	0xce, 0x17, 0x37, 0xf4, 0x32, 0x22, 0xbf, 0xc7, 0x21, 0xc9, 0x1e, 0xf4,
	0x0a, 0xab, 0xdb, 0x95, 0xfc, 0xea, 0x46, 0xfb, 0x41, 0xe2, 0xcf, 0xcc,
	0xc8, 0x14, 0x36, 0x19, 0xcd, 0xee, 0x9f, 0xc9, 0x96, 0xfb, 0xf1, 0xe7,
	0xf7, 0xb7, 0xca, 0x05, 0xc7, 0x0c, 0x26, 0xec, 0xfc, 0xf2, 0xfc, 0x28,
	0xe0, 0xf1, 0xf9, 0x0a, 0xf2, 0xd6, 0x08, 0xf0, 0xb1, 0x30, 0xe2, 0xf9,
	0xb9, 0xa1, 0x21, 0xd2, 0xc5, 0x0a, 0xf3, 0xd3, 0x0b, 0xc1, 0xd6, 0xfc,
	0xaf, 0x10, 0xfa, 0xda, 0x01, 0xdd, 0xe5, 0x33, 0xbc, 0xe8, 0x0c, 0xfe,
	0xfe, 0x0b, 0xe7, 0x00, 0xe5, 0xf0, 0xff, 0x0c, 0xf0, 0xd4, 0xe2, 0x09,
	0xe9, 0xfe, 0x13, 0xea, 0x26, 0x01, 0xd3, 0xff, 0xb1, 0xd8, 0x20, 0xe6,
	0xed, 0x00, 0x30, 0xc1, 0xcd, 0xd0, 0x1f, 0xc1, 0x0b, 0x03, 0x29, 0xfa,
	0xa2, 0xf6, 0xd6, 0xff, 0xda, 0xf6, 0xd6, 0x17, 0xad, 0xce, 0xeb, 0x1e,
	0xf2, 0xe7, 0xe3, 0x2c, 0x2a, 0xdb, 0xde, 0x31, 0xb7, 0xc8, 0x3f, 0x04,
	0xfa, 0xee, 0x35, 0x3a, 0xb6, 0x13, 0x3c, 0xf7, 0x13, 0xcc, 0xb2, 0x06,
	0xf5, 0x10, 0xcc, 0xdc, 0xb0, 0x38, 0xe6, 0x07, 0x16, 0x03, 0xbe, 0xdc,
	0xfa, 0x0a, 0x1d, 0x00, 0xff, 0xf2, 0xfb, 0xd5, 0xf1, 0xf3, 0x04, 0x08,
	0x1c, 0xe5, 0xfa, 0x07, 0x2d, 0x1b, 0xd2, 0xe1, 0x26, 0xf3, 0xce, 0x04,
	0x24, 0x3f, 0xe4, 0x81, 0x27, 0xfa, 0xb6, 0x0f, 0xe0, 0x2d, 0x19, 0xfc,
	0x1e, 0x3c, 0xb2, 0xea, 0x9b, 0x21, 0x3d, 0x39, 0x3f, 0xad, 0xcc, 0xfe,
	0x03, 0x0e, 0x10, 0xdc, 0xf8, 0xd6, 0xd7, 0xd6, 0x07, 0xd7, 0xd7, 0xcc,
	0x1b, 0x38, 0x06, 0x2d, 0x22, 0x0e, 0xe6, 0xfd, 0xb9, 0xf8, 0xc7, 0x2c,
	0xe5, 0x2d, 0xf9, 0xed, 0xf6, 0x05, 0xa5, 0x0a, 0xcb, 0xf2, 0x29, 0xc6,
	0x19, 0xc7, 0xfb, 0x35, 0xd8, 0x16, 0x1f, 0xd6, 0xea, 0x05, 0x12, 0x50,
	0xe4, 0xed, 0xef, 0xd9, 0x27, 0x0d, 0xef, 0x00, 0xf8, 0x23, 0xec, 0xc6,
	0xb1, 0x12, 0xbe, 0x20, 0xe0, 0x52, 0xef, 0x05, 0x1b, 0x0f, 0xf7, 0xff,
	0x03, 0xf5, 0xfe, 0xf6, 0xf1, 0xfc, 0xf5, 0x15, 0xcf, 0xfa, 0x09, 0x20,
	0xed, 0xc6, 0xf6, 0xe9, 0xe6, 0xfb, 0x2f, 0xd3, 0xd4, 0xdf, 0xf0, 0x05,
	0xcc, 0xe8, 0x25, 0xf8, 0xd0, 0xce, 0xe8, 0xb8, 0x06, 0x81, 0x09, 0x1e,
	0xe5, 0xf0, 0xf8, 0x1d, 0x05, 0xd8, 0xdf, 0xe2, 0x02, 0xe5, 0x14, 0xec,
	0xf8, 0xf6, 0xe2, 0x5d, 0xa0, 0x26, 0xe8, 0x00, 0x16, 0x34, 0xfc, 0xfc,
	0xe7, 0x03, 0xf1, 0x25, 0xe1, 0x4e, 0x3b, 0x4b, 0xee, 0xfa, 0xc6, 0xfe,
	0xe7, 0x27, 0x34, 0xda, 0xaa, 0xcf, 0xd5, 0xc6, 0x11, 0x53, 0xd3, 0x05,
	0x1c, 0x0b, 0x3c, 0x08, 0x13, 0xe0, 0xff, 0x64, 0xf2, 0x15, 0xe9, 0x2e,
	0x06, 0x1e, 0xcf, 0x31, 0xbc, 0xee, 0xe1, 0x0b, 0x11, 0x0b, 0x13, 0x73,
	0xc7, 0x43, 0xc9, 0x3d, 0xf4, 0x59, 0xf0, 0x17, 0x08, 0x0f, 0xb7, 0xdc,
	0xd0, 0x1b, 0x0d, 0xea, 0x26, 0xed, 0xe4, 0xf4, 0xea, 0xf2, 0xca, 0xda,
	0x06, 0x26, 0xd7, 0x0a, 0x4b, 0x0e, 0xbc, 0x41, 0xed, 0x3a, 0xf9, 0x00,
	0x14, 0x0d, 0x2c, 0x50, 0x51, 0xec, 0x21, 0x04, 0x23, 0xd7, 0x3c, 0x08,
	0x93, 0xc8, 0x30, 0xb3, 0xed, 0x26, 0x13, 0x50, 0xe6, 0xc3, 0xec, 0xd7,
	0xcc, 0xe8, 0x04, 0xb7, 0x40, 0xd4, 0x12, 0xd7, 0x18, 0xfa, 0xd1, 0xf3,
	0x34, 0xe1, 0xed, 0xe4, 0xf1, 0xd9, 0xe5, 0xfb, 0x0f, 0x0a, 0x34, 0xd1,
	0xf0, 0xc6, 0xfc, 0xb3, 0xc9, 0xef, 0x39, 0xd4, 0xe7, 0xf0, 0x10, 0xca,
	0xc4, 0x02, 0x1f, 0xda, 0x11, 0xdb, 0x31, 0xfb, 0xb9, 0x08, 0xed, 0xf3,
	0x00, 0xf2, 0xf7, 0xcd, 0x05, 0x17, 0x57, 0x0e, 0xbd, 0x2a, 0xd3, 0x05,
	0xdf, 0xc6, 0xd4, 0x1b, 0xe4, 0x13, 0x38, 0x2c, 0xc5, 0xcd, 0x1e, 0x29,
	0x34, 0xad, 0xb7, 0xfe, 0xe8, 0xb5, 0xfd, 0xdf, 0x17, 0xb8, 0xe2, 0xfb,
	0xff, 0xeb, 0x23, 0xf0, 0xdb, 0xe7, 0xcf, 0xf2, 0xfb, 0xf1, 0xbe, 0xc7,
	0x81, 0xd7, 0xfa, 0xd0, 0x1b, 0x0f, 0x01, 0xdc, 0x07, 0xee, 0xde, 0x32,
	0x18, 0xae, 0xe0, 0x3c, 0xf8, 0xc3, 0xdb, 0xc0, 0xe3, 0xbe, 0xd7, 0xff,
	0xe2, 0xe5, 0x11, 0x0a, 0x0a, 0x0b, 0xb6, 0xee, 0xf0, 0xc2, 0xe9, 0xed,
	0x81, 0xf9, 0xb1, 0xf5, 0xae, 0x07, 0xf1, 0x13, 0x01, 0xd5, 0xf3, 0xd2,
	0x07, 0x09, 0xb4, 0xc7, 0x42, 0xc3, 0x2a, 0xf4, 0xff, 0xeb, 0xe6, 0xf8,
	0xbb, 0xba, 0x24, 0xdb, 0x1d, 0xf5, 0x08, 0x39, 0x98, 0xee, 0xee, 0x27,
	0x4e, 0xe9, 0x0c, 0xe7, 0xe1, 0x02, 0xbd, 0x01, 0x0c, 0xf0, 0x05, 0x3a,
	0xdd, 0xff, 0xd3, 0xe1, 0xd4, 0x2b, 0xc5, 0x06, 0x36, 0x9b, 0x0b, 0xcd,
	0xef, 0x13, 0xfa, 0x1d, 0xef, 0xcb, 0x03, 0xb7, 0x1f, 0xe1, 0xe4, 0x3d,
	0xda, 0xff, 0x16, 0x21, 0x10, 0xed, 0xfa, 0x30, 0xef, 0xf7, 0x21, 0x2b,
	0x37, 0x02, 0x08, 0x18, 0x00, 0x13, 0x08, 0x1d, 0xe5, 0x21, 0xe4, 0xfb,
	0x23, 0xe8, 0xb6, 0xd5, 0x00, 0x00, 0x00, 0x00, 0xf6, 0xfd, 0xff, 0xff,
	0x04, 0x00, 0x00, 0x00, 0xc8, 0x00, 0x00, 0x00, 0x18, 0x28, 0x81, 0x07,
	0xde, 0x4d, 0x15, 0xfd, 0x97, 0xd9, 0x1b, 0x6a, 0x65, 0x32, 0xc7, 0x07,
	0x23, 0x11, 0x0f, 0x09, 0xe6, 0x07, 0xfb, 0x28, 0xec, 0x1c, 0x4c, 0x8e,
	0x12, 0x10, 0x01, 0xf4, 0x1f, 0xf3, 0x1d, 0x52, 0x2b, 0x8f, 0xc9, 0x7f,
	0x41, 0xc3, 0xc4, 0x0e, 0x63, 0x11, 0x11, 0xf7, 0x64, 0x12, 0x19, 0xdf,
	0x4a, 0xf9, 0xf6, 0x1f, 0x65, 0x1d, 0xbf, 0xe1, 0x08, 0x81, 0xa4, 0xe3,
	0x25, 0xb3, 0x30, 0xea, 0xf3, 0x48, 0x68, 0x14, 0x3d, 0x7b, 0xca, 0x01,
	0x20, 0xfc, 0x2f, 0x36, 0x48, 0xc4, 0xcd, 0xf0, 0x07, 0x29, 0x73, 0xed,
	0xb4, 0xdb, 0xd1, 0x4b, 0x7f, 0x9c, 0x37, 0xca, 0xc3, 0x4e, 0x3b, 0x18,
	0x25, 0x26, 0x7f, 0x4f, 0x00, 0xa8, 0xc0, 0x1c, 0x29, 0x20, 0x29, 0x04,
	0xc8, 0xfd, 0x3e, 0xcb, 0xb3, 0x36, 0xe3, 0x15, 0x3e, 0x60, 0xe8, 0x46,
	0xd4, 0x6d, 0xe1, 0x5b, 0x97, 0x01, 0x3b, 0x16, 0xd9, 0x17, 0xcb, 0xea,
	0x7f, 0xb2, 0xce, 0x3f, 0xe9, 0xd0, 0x4c, 0xc6, 0xf1, 0x18, 0x38, 0xb9,
	0x1c, 0xee, 0xf3, 0x1f, 0xfa, 0xb1, 0xeb, 0x3c, 0x1f, 0x18, 0x7f, 0x6e,
	0xf9, 0x0f, 0x23, 0x00, 0x3b, 0x4f, 0x17, 0x2c, 0xd5, 0xf6, 0x87, 0x01,
	0x99, 0xfe, 0xeb, 0xc7, 0x73, 0xf0, 0x1f, 0x04, 0x06, 0x25, 0x22, 0xff,
	0x17, 0xda, 0x1b, 0x5b, 0x26, 0x81, 0xee, 0x59, 0x41, 0xcd, 0xe3, 0x2a,
	0x0d, 0x15, 0x0c, 0x1a, 0x00, 0x00, 0x00, 0x00, 0x00, 0x00, 0x00, 0x00,
	0x00, 0x00, 0x00, 0x00, 0xd6, 0xfe, 0xff, 0xff, 0x04, 0x00, 0x00, 0x00,
	0x40, 0x00, 0x00, 0x00, 0x9e, 0xff, 0xff, 0xff, 0x78, 0x00, 0x00, 0x00,
	0xdc, 0xff, 0xff, 0xff, 0x59, 0xff, 0xff, 0xff, 0x45, 0x00, 0x00, 0x00,
	0x1d, 0x00, 0x00, 0x00, 0x94, 0xfe, 0xff, 0xff, 0x99, 0xff, 0xff, 0xff,
	0x97, 0xff, 0xff, 0xff, 0xbb, 0xff, 0xff, 0xff, 0xa2, 0xff, 0xff, 0xff,
	0xb6, 0xff, 0xff, 0xff, 0x40, 0x00, 0x00, 0x00, 0x73, 0xff, 0xff, 0xff,
	0xde, 0xfe, 0xff, 0xff, 0x1b, 0xff, 0xff, 0xff, 0x00, 0x00, 0x00, 0x00,
	0x26, 0xff, 0xff, 0xff, 0x04, 0x00, 0x00, 0x00, 0x20, 0x00, 0x00, 0x00,
	0x71, 0xfe, 0xff, 0xff, 0x61, 0xfe, 0xff, 0xff, 0xb5, 0xfd, 0xff, 0xff,
	0x36, 0xfe, 0xff, 0xff, 0xc2, 0xfd, 0xff, 0xff, 0x9c, 0xfe, 0xff, 0xff,
	0xcf, 0xfd, 0xff, 0xff, 0x56, 0xfe, 0xff, 0xff, 0x00, 0x00, 0x00, 0x00,
	0x00, 0x00, 0x00, 0x00, 0x00, 0x00, 0x00, 0x00, 0xf4, 0xff, 0xff, 0xff,
	0x00, 0x00, 0x00, 0x00, 0x00, 0x00, 0x00, 0x00, 0x04, 0x00, 0x04, 0x00,
	0x04, 0x00, 0x00, 0x00, 0x00, 0x00, 0x00, 0x00, 0x00, 0x00, 0x00, 0x00,
	0x0f, 0x00, 0x00, 0x00, 0x4d, 0x4c, 0x49, 0x52, 0x20, 0x43, 0x6f, 0x6e,
	0x76, 0x65, 0x72, 0x74, 0x65, 0x64, 0x2e, 0x00, 0x01, 0x00, 0x00, 0x00,
	0x14, 0x00, 0x00, 0x00, 0x00, 0x00, 0x0e, 0x00, 0x18, 0x00, 0x04, 0x00,
	0x08, 0x00, 0x0c, 0x00, 0x10, 0x00, 0x14, 0x00, 0x0e, 0x00, 0x00, 0x00,
	0x20, 0x02, 0x00, 0x00, 0x14, 0x02, 0x00, 0x00, 0x08, 0x02, 0x00, 0x00,
	0x14, 0x00, 0x00, 0x00, 0x04, 0x00, 0x00, 0x00, 0x04, 0x00, 0x00, 0x00,
	0x6d, 0x61, 0x69, 0x6e, 0x00, 0x00, 0x00, 0x00, 0x06, 0x00, 0x00, 0x00,
	0xa4, 0x01, 0x00, 0x00, 0x40, 0x01, 0x00, 0x00, 0xf0, 0x00, 0x00, 0x00,
	0xac, 0x00, 0x00, 0x00, 0x50, 0x00, 0x00, 0x00, 0x04, 0x00, 0x00, 0x00,
	0xe2, 0xfe, 0xff, 0xff, 0x00, 0x00, 0x00, 0x09, 0x02, 0x00, 0x00, 0x00,
	0x24, 0x00, 0x00, 0x00, 0x18, 0x00, 0x00, 0x00, 0x0c, 0x00, 0x00, 0x00,
	0x00, 0x00, 0x06, 0x00, 0x08, 0x00, 0x04, 0x00, 0x06, 0x00, 0x00, 0x00,
	0x00, 0x00, 0x80, 0x3f, 0x01, 0x00, 0x00, 0x00, 0x0c, 0x00, 0x00, 0x00,
	0x01, 0x00, 0x00, 0x00, 0x0b, 0x00, 0x00, 0x00, 0x00, 0x00, 0x0e, 0x00,
	0x16, 0x00, 0x00, 0x00, 0x08, 0x00, 0x0c, 0x00, 0x07, 0x00, 0x10, 0x00,
	0x0e, 0x00, 0x00, 0x00, 0x00, 0x00, 0x00, 0x01, 0x30, 0x00, 0x00, 0x00,
	0x24, 0x00, 0x00, 0x00, 0x10, 0x00, 0x00, 0x00, 0x00, 0x00, 0x0a, 0x00,
	0x10, 0x00, 0x07, 0x00, 0x08, 0x00, 0x0c, 0x00, 0x0a, 0x00, 0x00, 0x00,
	0x00, 0x00, 0x00, 0x01, 0x01, 0x00, 0x00, 0x00, 0x01, 0x00, 0x00, 0x00,
	0x01, 0x00, 0x00, 0x00, 0x0b, 0x00, 0x00, 0x00, 0x03, 0x00, 0x00, 0x00,
	0x0a, 0x00, 0x00, 0x00, 0x05, 0x00, 0x00, 0x00, 0x06, 0x00, 0x00, 0x00,
	0x00, 0x00, 0x0e, 0x00, 0x18, 0x00, 0x08, 0x00, 0x0c, 0x00, 0x10, 0x00,
	0x07, 0x00, 0x14, 0x00, 0x0e, 0x00, 0x00, 0x00, 0x00, 0x00, 0x00, 0x05,
	0x01, 0x00, 0x00, 0x00, 0x2c, 0x00, 0x00, 0x00, 0x20, 0x00, 0x00, 0x00,
	0x04, 0x00, 0x00, 0x00, 0x72, 0xff, 0xff, 0xff, 0x00, 0x00, 0x00, 0x01,
	0x02, 0x00, 0x00, 0x00, 0x02, 0x00, 0x00, 0x00, 0x02, 0x00, 0x00, 0x00,
	0x02, 0x00, 0x00, 0x00, 0x01, 0x00, 0x00, 0x00, 0x0a, 0x00, 0x00, 0x00,
	0x01, 0x00, 0x00, 0x00, 0x09, 0x00, 0x00, 0x00, 0x62, 0xff, 0xff, 0xff,
	0x00, 0x00, 0x00, 0x01, 0x24, 0x00, 0x00, 0x00, 0x18, 0x00, 0x00, 0x00,
	0x04, 0x00, 0x00, 0x00, 0x54, 0xff, 0xff, 0xff, 0x00, 0x00, 0x01, 0x01,
	0x01, 0x00, 0x00, 0x00, 0x01, 0x00, 0x00, 0x00, 0x01, 0x00, 0x00, 0x00,
	0x09, 0x00, 0x00, 0x00, 0x03, 0x00, 0x00, 0x00, 0x08, 0x00, 0x00, 0x00,
	0x04, 0x00, 0x00, 0x00, 0x02, 0x00, 0x00, 0x00, 0x00, 0x00, 0x0e, 0x00,
	0x1a, 0x00, 0x08, 0x00, 0x0c, 0x00, 0x10, 0x00, 0x07, 0x00, 0x14, 0x00,
	0x0e, 0x00, 0x00, 0x00, 0x00, 0x00, 0x00, 0x05, 0x01, 0x00, 0x00, 0x00,
	0x3c, 0x00, 0x00, 0x00, 0x30, 0x00, 0x00, 0x00, 0x14, 0x00, 0x00, 0x00,
	0x00, 0x00, 0x0e, 0x00, 0x18, 0x00, 0x07, 0x00, 0x08, 0x00, 0x0c, 0x00,
	0x10, 0x00, 0x14, 0x00, 0x0e, 0x00, 0x00, 0x00, 0x00, 0x00, 0x00, 0x01,
	0x02, 0x00, 0x00, 0x00, 0x02, 0x00, 0x00, 0x00, 0x02, 0x00, 0x00, 0x00,
	0x02, 0x00, 0x00, 0x00, 0x01, 0x00, 0x00, 0x00, 0x08, 0x00, 0x00, 0x00,
	0x01, 0x00, 0x00, 0x00, 0x07, 0x00, 0x00, 0x00, 0x00, 0x00, 0x0e, 0x00,
	0x14, 0x00, 0x00, 0x00, 0x08, 0x00, 0x0c, 0x00, 0x07, 0x00, 0x10, 0x00,
	0x0e, 0x00, 0x00, 0x00, 0x00, 0x00, 0x00, 0x01, 0x30, 0x00, 0x00, 0x00,
	0x24, 0x00, 0x00, 0x00, 0x10, 0x00, 0x00, 0x00, 0x0c, 0x00, 0x10, 0x00,
	0x06, 0x00, 0x08, 0x00, 0x0c, 0x00, 0x07, 0x00, 0x0c, 0x00, 0x00, 0x00,
	0x00, 0x00, 0x01, 0x01, 0x01, 0x00, 0x00, 0x00, 0x01, 0x00, 0x00, 0x00,
	0x01, 0x00, 0x00, 0x00, 0x07, 0x00, 0x00, 0x00, 0x03, 0x00, 0x00, 0x00,
	0x00, 0x00, 0x00, 0x00, 0x03, 0x00, 0x00, 0x00, 0x01, 0x00, 0x00, 0x00,
	0x01, 0x00, 0x00, 0x00, 0x0c, 0x00, 0x00, 0x00, 0x01, 0x00, 0x00, 0x00,
	0x00, 0x00, 0x00, 0x00, 0x0d, 0x00, 0x00, 0x00, 0x90, 0x0e, 0x00, 0x00,
	0xc4, 0x0d, 0x00, 0x00, 0xac, 0x0c, 0x00, 0x00, 0x60, 0x0b, 0x00, 0x00,
	0x74, 0x09, 0x00, 0x00, 0x00, 0x08, 0x00, 0x00, 0x94, 0x06, 0x00, 0x00,
	0x18, 0x05, 0x00, 0x00, 0x34, 0x04, 0x00, 0x00, 0xa8, 0x02, 0x00, 0x00,
	0xbc, 0x01, 0x00, 0x00, 0x80, 0x00, 0x00, 0x00, 0x04, 0x00, 0x00, 0x00,
	0xb8, 0xf1, 0xff, 0xff, 0x00, 0x00, 0x00, 0x09, 0x5c, 0x00, 0x00, 0x00,
	0x0d, 0x00, 0x00, 0x00, 0x44, 0x00, 0x00, 0x00, 0x1c, 0x00, 0x00, 0x00,
	0x04, 0x00, 0x00, 0x00, 0x04, 0x00, 0x00, 0x00, 0xff, 0xff, 0xff, 0xff,
	0x01, 0x00, 0x00, 0x00, 0x01, 0x00, 0x00, 0x00, 0x0a, 0x00, 0x00, 0x00,
	0x84, 0xf2, 0xff, 0xff, 0x18, 0x00, 0x00, 0x00, 0x04, 0x00, 0x00, 0x00,
	0x01, 0x00, 0x00, 0x00, 0x80, 0xff, 0xff, 0xff, 0xff, 0xff, 0xff, 0xff,
	0x00, 0x00, 0x00, 0x00, 0x01, 0x00, 0x00, 0x00, 0x00, 0x00, 0x80, 0x3b,
	0x08, 0x00, 0x00, 0x00, 0x49, 0x64, 0x65, 0x6e, 0x74, 0x69, 0x74, 0x79,
	0x00, 0x00, 0x00, 0x00, 0x04, 0x00, 0x00, 0x00, 0x01, 0x00, 0x00, 0x00,
	0x01, 0x00, 0x00, 0x00, 0x01, 0x00, 0x00, 0x00, 0x0a, 0x00, 0x00, 0x00,
	0x30, 0xf2, 0xff, 0xff, 0x00, 0x00, 0x00, 0x09, 0x1c, 0x01, 0x00, 0x00,
	0x0c, 0x00, 0x00, 0x00, 0x58, 0x00, 0x00, 0x00, 0x1c, 0x00, 0x00, 0x00,
	0x04, 0x00, 0x00, 0x00, 0x04, 0x00, 0x00, 0x00, 0xff, 0xff, 0xff, 0xff,
	0x01, 0x00, 0x00, 0x00, 0x01, 0x00, 0x00, 0x00, 0x0a, 0x00, 0x00, 0x00,
	0x1c, 0xf2, 0xff, 0xff, 0x2c, 0x00, 0x00, 0x00, 0x20, 0x00, 0x00, 0x00,
	0x14, 0x00, 0x00, 0x00, 0x04, 0x00, 0x00, 0x00, 0x01, 0x00, 0x00, 0x00,
	0x0e, 0x00, 0x00, 0x00, 0x00, 0x00, 0x00, 0x00, 0x01, 0x00, 0x00, 0x00,
	0x72, 0x18, 0xf6, 0x3e, 0x01, 0x00, 0x00, 0x00, 0xbc, 0x4c, 0x58, 0x42,
	0x01, 0x00, 0x00, 0x00, 0xfc, 0xfb, 0x88, 0xc2, 0xb4, 0x00, 0x00, 0x00,
	0x63, 0x6f, 0x6e, 0x76, 0x32, 0x64, 0x5f, 0x32, 0x2f, 0x42, 0x69, 0x61,
	0x73, 0x41, 0x64, 0x64, 0x3b, 0x53, 0x74, 0x61, 0x74, 0x65, 0x66, 0x75,
	0x6c, 0x50, 0x61, 0x72, 0x74, 0x69, 0x74, 0x69, 0x6f, 0x6e, 0x65, 0x64,
	0x43, 0x61, 0x6c, 0x6c, 0x2f, 0x63, 0x6e, 0x6e, 0x2f, 0x53, 0x74, 0x61,
	0x74, 0x65, 0x66, 0x75, 0x6c, 0x50, 0x61, 0x72, 0x74, 0x69, 0x74, 0x69,
	0x6f, 0x6e, 0x65, 0x64, 0x43, 0x61, 0x6c, 0x6c, 0x2f, 0x63, 0x6f, 0x6e,
	0x76, 0x32, 0x64, 0x5f, 0x32, 0x2f, 0x42, 0x69, 0x61, 0x73, 0x41, 0x64,
	0x64, 0x3b, 0x63, 0x6f, 0x6e, 0x76, 0x32, 0x64, 0x5f, 0x32, 0x2f, 0x43,
	0x6f, 0x6e, 0x76, 0x32, 0x44, 0x3b, 0x53, 0x74, 0x61, 0x74, 0x65, 0x66,
	0x75, 0x6c, 0x50, 0x61, 0x72, 0x74, 0x69, 0x74, 0x69, 0x6f, 0x6e, 0x65,
	0x64, 0x43, 0x61, 0x6c, 0x6c, 0x2f, 0x63, 0x6e, 0x6e, 0x2f, 0x53, 0x74,
	0x61, 0x74, 0x65, 0x66, 0x75, 0x6c, 0x50, 0x61, 0x72, 0x74, 0x69, 0x74,
	0x69, 0x6f, 0x6e, 0x65, 0x64, 0x43, 0x61, 0x6c, 0x6c, 0x2f, 0x63, 0x6f,
	0x6e, 0x76, 0x32, 0x64, 0x5f, 0x32, 0x2f, 0x43, 0x6f, 0x6e, 0x76, 0x32,
	0x44, 0x3b, 0x75, 0x6e, 0x6b, 0x6e, 0x6f, 0x77, 0x6e, 0x5f, 0x34, 0x31,
	0x00, 0x00, 0x00, 0x00, 0x04, 0x00, 0x00, 0x00, 0x01, 0x00, 0x00, 0x00,
	0x01, 0x00, 0x00, 0x00, 0x01, 0x00, 0x00, 0x00, 0x0a, 0x00, 0x00, 0x00,
	0x68, 0xf3, 0xff, 0xff, 0x00, 0x00, 0x00, 0x09, 0xcc, 0x00, 0x00, 0x00,
	0x0b, 0x00, 0x00, 0x00, 0x5c, 0x00, 0x00, 0x00, 0x1c, 0x00, 0x00, 0x00,
	0x04, 0x00, 0x00, 0x00, 0x04, 0x00, 0x00, 0x00, 0xff, 0xff, 0xff, 0xff,
	0x04, 0x00, 0x00, 0x00, 0x04, 0x00, 0x00, 0x00, 0x10, 0x00, 0x00, 0x00,
	0x54, 0xf3, 0xff, 0xff, 0x30, 0x00, 0x00, 0x00, 0x24, 0x00, 0x00, 0x00,
	0x18, 0x00, 0x00, 0x00, 0x04, 0x00, 0x00, 0x00, 0x01, 0x00, 0x00, 0x00,
	0x80, 0xff, 0xff, 0xff, 0xff, 0xff, 0xff, 0xff, 0x00, 0x00, 0x00, 0x00,
	0x01, 0x00, 0x00, 0x00, 0x20, 0xa9, 0x98, 0x3e, 0x01, 0x00, 0x00, 0x00,
	0x77, 0x10, 0x98, 0x42, 0x01, 0x00, 0x00, 0x00, 0x00, 0x00, 0x00, 0x00,
	0x63, 0x00, 0x00, 0x00, 0x6d, 0x61, 0x78, 0x5f, 0x70, 0x6f, 0x6f, 0x6c,
	0x69, 0x6e, 0x67, 0x32, 0x64, 0x5f, 0x31, 0x2f, 0x4d, 0x61, 0x78, 0x50,
	0x6f, 0x6f, 0x6c, 0x3b, 0x53, 0x74, 0x61, 0x74, 0x65, 0x66, 0x75, 0x6c,
	0x50, 0x61, 0x72, 0x74, 0x69, 0x74, 0x69, 0x6f, 0x6e, 0x65, 0x64, 0x43,
	0x61, 0x6c, 0x6c, 0x2f, 0x63, 0x6e, 0x6e, 0x2f, 0x53, 0x74, 0x61, 0x74,
	0x65, 0x66, 0x75, 0x6c, 0x50, 0x61, 0x72, 0x74, 0x69, 0x74, 0x69, 0x6f,
	0x6e, 0x65, 0x64, 0x43, 0x61, 0x6c, 0x6c, 0x2f, 0x6d, 0x61, 0x78, 0x5f,
	0x70, 0x6f, 0x6f, 0x6c, 0x69, 0x6e, 0x67, 0x32, 0x64, 0x5f, 0x31, 0x2f,
	0x4d, 0x61, 0x78, 0x50, 0x6f, 0x6f, 0x6c, 0x00, 0x04, 0x00, 0x00, 0x00,
	0x01, 0x00, 0x00, 0x00, 0x04, 0x00, 0x00, 0x00, 0x04, 0x00, 0x00, 0x00,
	0x10, 0x00, 0x00, 0x00, 0x50, 0xf4, 0xff, 0xff, 0x00, 0x00, 0x00, 0x09,
	0x6c, 0x01, 0x00, 0x00, 0x0a, 0x00, 0x00, 0x00, 0x5c, 0x00, 0x00, 0x00,
	0x1c, 0x00, 0x00, 0x00, 0x04, 0x00, 0x00, 0x00, 0x04, 0x00, 0x00, 0x00,
	0xff, 0xff, 0xff, 0xff, 0x08, 0x00, 0x00, 0x00, 0x08, 0x00, 0x00, 0x00,
	0x10, 0x00, 0x00, 0x00, 0x3c, 0xf4, 0xff, 0xff, 0x30, 0x00, 0x00, 0x00,
	0x24, 0x00, 0x00, 0x00, 0x18, 0x00, 0x00, 0x00, 0x04, 0x00, 0x00, 0x00,
	0x01, 0x00, 0x00, 0x00, 0x80, 0xff, 0xff, 0xff, 0xff, 0xff, 0xff, 0xff,
	0x00, 0x00, 0x00, 0x00, 0x01, 0x00, 0x00, 0x00, 0x20, 0xa9, 0x98, 0x3e,
	0x01, 0x00, 0x00, 0x00, 0x77, 0x10, 0x98, 0x42, 0x01, 0x00, 0x00, 0x00,
	0x00, 0x00, 0x00, 0x00, 0x03, 0x01, 0x00, 0x00, 0x63, 0x6f, 0x6e, 0x76,
	0x32, 0x64, 0x5f, 0x31, 0x2f, 0x52, 0x65, 0x6c, 0x75, 0x3b, 0x53, 0x74,
	0x61, 0x74, 0x65, 0x66, 0x75, 0x6c, 0x50, 0x61, 0x72, 0x74, 0x69, 0x74,
	0x69, 0x6f, 0x6e, 0x65, 0x64, 0x43, 0x61, 0x6c, 0x6c, 0x2f, 0x63, 0x6e,
	0x6e, 0x2f, 0x53, 0x74, 0x61, 0x74, 0x65, 0x66, 0x75, 0x6c, 0x50, 0x61,
	0x72, 0x74, 0x69, 0x74, 0x69, 0x6f, 0x6e, 0x65, 0x64, 0x43, 0x61, 0x6c,
	0x6c, 0x2f, 0x63, 0x6f, 0x6e, 0x76, 0x32, 0x64, 0x5f, 0x31, 0x2f, 0x52,
	0x65, 0x6c, 0x75, 0x3b, 0x63, 0x6f, 0x6e, 0x76, 0x32, 0x64, 0x5f, 0x31,
	0x2f, 0x42, 0x69, 0x61, 0x73, 0x41, 0x64, 0x64, 0x3b, 0x53, 0x74, 0x61,
	0x74, 0x65, 0x66, 0x75, 0x6c, 0x50, 0x61, 0x72, 0x74, 0x69, 0x74, 0x69,
	0x6f, 0x6e, 0x65, 0x64, 0x43, 0x61, 0x6c, 0x6c, 0x2f, 0x63, 0x6e, 0x6e,
	0x2f, 0x53, 0x74, 0x61, 0x74, 0x65, 0x66, 0x75, 0x6c, 0x50, 0x61, 0x72,
	0x74, 0x69, 0x74, 0x69, 0x6f, 0x6e, 0x65, 0x64, 0x43, 0x61, 0x6c, 0x6c,
	0x2f, 0x63, 0x6f, 0x6e, 0x76, 0x32, 0x64, 0x5f, 0x31, 0x2f, 0x42, 0x69,
	0x61, 0x73, 0x41, 0x64, 0x64, 0x3b, 0x63, 0x6f, 0x6e, 0x76, 0x32, 0x64,
	0x5f, 0x31, 0x2f, 0x43, 0x6f, 0x6e, 0x76, 0x32, 0x44, 0x3b, 0x53, 0x74,
	0x61, 0x74, 0x65, 0x66, 0x75, 0x6c, 0x50, 0x61, 0x72, 0x74, 0x69, 0x74,
	0x69, 0x6f, 0x6e, 0x65, 0x64, 0x43, 0x61, 0x6c, 0x6c, 0x2f, 0x63, 0x6e,
	0x6e, 0x2f, 0x53, 0x74, 0x61, 0x74, 0x65, 0x66, 0x75, 0x6c, 0x50, 0x61,
	0x72, 0x74, 0x69, 0x74, 0x69, 0x6f, 0x6e, 0x65, 0x64, 0x43, 0x61, 0x6c,
	0x6c, 0x2f, 0x63, 0x6f, 0x6e, 0x76, 0x32, 0x64, 0x5f, 0x31, 0x2f, 0x43,
	0x6f, 0x6e, 0x76, 0x32, 0x44, 0x3b, 0x75, 0x6e, 0x6b, 0x6e, 0x6f, 0x77,
	0x6e, 0x5f, 0x32, 0x00, 0x04, 0x00, 0x00, 0x00, 0x01, 0x00, 0x00, 0x00,
	0x08, 0x00, 0x00, 0x00, 0x08, 0x00, 0x00, 0x00, 0x10, 0x00, 0x00, 0x00,
	0xd8, 0xf5, 0xff, 0xff, 0x00, 0x00, 0x00, 0x09, 0xc4, 0x00, 0x00, 0x00,
	0x09, 0x00, 0x00, 0x00, 0x58, 0x00, 0x00, 0x00, 0x1c, 0x00, 0x00, 0x00,
	0x04, 0x00, 0x00, 0x00, 0x04, 0x00, 0x00, 0x00, 0xff, 0xff, 0xff, 0xff,
	0x0c, 0x00, 0x00, 0x00, 0x0c, 0x00, 0x00, 0x00, 0x08, 0x00, 0x00, 0x00,
	0xc4, 0xf5, 0xff, 0xff, 0x2c, 0x00, 0x00, 0x00, 0x20, 0x00, 0x00, 0x00,
	0x14, 0x00, 0x00, 0x00, 0x04, 0x00, 0x00, 0x00, 0x01, 0x00, 0x00, 0x00,
	0x80, 0xff, 0xff, 0xff, 0xff, 0xff, 0xff, 0xff, 0x01, 0x00, 0x00, 0x00,
	0x82, 0xd2, 0xd9, 0x3e, 0x01, 0x00, 0x00, 0x00, 0xaf, 0xf8, 0xd8, 0x42,
	0x01, 0x00, 0x00, 0x00, 0x00, 0x00, 0x00, 0x00, 0x5f, 0x00, 0x00, 0x00,
	0x6d, 0x61, 0x78, 0x5f, 0x70, 0x6f, 0x6f, 0x6c, 0x69, 0x6e, 0x67, 0x32,
	0x64, 0x2f, 0x4d, 0x61, 0x78, 0x50, 0x6f, 0x6f, 0x6c, 0x3b, 0x53, 0x74,
	0x61, 0x74, 0x65, 0x66, 0x75, 0x6c, 0x50, 0x61, 0x72, 0x74, 0x69, 0x74,
	0x69, 0x6f, 0x6e, 0x65, 0x64, 0x43, 0x61, 0x6c, 0x6c, 0x2f, 0x63, 0x6e,
	0x6e, 0x2f, 0x53, 0x74, 0x61, 0x74, 0x65, 0x66, 0x75, 0x6c, 0x50, 0x61,
	0x72, 0x74, 0x69, 0x74, 0x69, 0x6f, 0x6e, 0x65, 0x64, 0x43, 0x61, 0x6c,
	0x6c, 0x2f, 0x6d, 0x61, 0x78, 0x5f, 0x70, 0x6f, 0x6f, 0x6c, 0x69, 0x6e,
	0x67, 0x32, 0x64, 0x2f, 0x4d, 0x61, 0x78, 0x50, 0x6f, 0x6f, 0x6c, 0x00,
	0x04, 0x00, 0x00, 0x00, 0x01, 0x00, 0x00, 0x00, 0x0c, 0x00, 0x00, 0x00,
	0x0c, 0x00, 0x00, 0x00, 0x08, 0x00, 0x00, 0x00, 0xb8, 0xf6, 0xff, 0xff,
	0x00, 0x00, 0x00, 0x09, 0x5c, 0x01, 0x00, 0x00, 0x08, 0x00, 0x00, 0x00,
	0x58, 0x00, 0x00, 0x00, 0x1c, 0x00, 0x00, 0x00, 0x04, 0x00, 0x00, 0x00,
	0x04, 0x00, 0x00, 0x00, 0xff, 0xff, 0xff, 0xff, 0x18, 0x00, 0x00, 0x00,
	0x18, 0x00, 0x00, 0x00, 0x08, 0x00, 0x00, 0x00, 0xa4, 0xf6, 0xff, 0xff,
	0x2c, 0x00, 0x00, 0x00, 0x20, 0x00, 0x00, 0x00, 0x14, 0x00, 0x00, 0x00,
	0x04, 0x00, 0x00, 0x00, 0x01, 0x00, 0x00, 0x00, 0x80, 0xff, 0xff, 0xff,
	0xff, 0xff, 0xff, 0xff, 0x01, 0x00, 0x00, 0x00, 0x82, 0xd2, 0xd9, 0x3e,
	0x01, 0x00, 0x00, 0x00, 0xaf, 0xf8, 0xd8, 0x42, 0x01, 0x00, 0x00, 0x00,
	0x00, 0x00, 0x00, 0x00, 0xf7, 0x00, 0x00, 0x00, 0x63, 0x6f, 0x6e, 0x76,
	0x32, 0x64, 0x2f, 0x52, 0x65, 0x6c, 0x75, 0x3b, 0x53, 0x74, 0x61, 0x74,
	0x65, 0x66, 0x75, 0x6c, 0x50, 0x61, 0x72, 0x74, 0x69, 0x74, 0x69, 0x6f,
	0x6e, 0x65, 0x64, 0x43, 0x61, 0x6c, 0x6c, 0x2f, 0x63, 0x6e, 0x6e, 0x2f,
	0x53, 0x74, 0x61, 0x74, 0x65, 0x66, 0x75, 0x6c, 0x50, 0x61, 0x72, 0x74,
	0x69, 0x74, 0x69, 0x6f, 0x6e, 0x65, 0x64, 0x43, 0x61, 0x6c, 0x6c, 0x2f,
	0x63, 0x6f, 0x6e, 0x76, 0x32, 0x64, 0x2f, 0x52, 0x65, 0x6c, 0x75, 0x3b,
	0x63, 0x6f, 0x6e, 0x76, 0x32, 0x64, 0x2f, 0x42, 0x69, 0x61, 0x73, 0x41,
	0x64, 0x64, 0x3b, 0x53, 0x74, 0x61, 0x74, 0x65, 0x66, 0x75, 0x6c, 0x50,
	0x61, 0x72, 0x74, 0x69, 0x74, 0x69, 0x6f, 0x6e, 0x65, 0x64, 0x43, 0x61,
	0x6c, 0x6c, 0x2f, 0x63, 0x6e, 0x6e, 0x2f, 0x53, 0x74, 0x61, 0x74, 0x65,
	0x66, 0x75, 0x6c, 0x50, 0x61, 0x72, 0x74, 0x69, 0x74, 0x69, 0x6f, 0x6e,
	0x65, 0x64, 0x43, 0x61, 0x6c, 0x6c, 0x2f, 0x63, 0x6f, 0x6e, 0x76, 0x32,
	0x64, 0x2f, 0x42, 0x69, 0x61, 0x73, 0x41, 0x64, 0x64, 0x3b, 0x63, 0x6f,
	0x6e, 0x76, 0x32, 0x64, 0x2f, 0x43, 0x6f, 0x6e, 0x76, 0x32, 0x44, 0x3b,
	0x53, 0x74, 0x61, 0x74, 0x65, 0x66, 0x75, 0x6c, 0x50, 0x61, 0x72, 0x74,
	0x69, 0x74, 0x69, 0x6f, 0x6e, 0x65, 0x64, 0x43, 0x61, 0x6c, 0x6c, 0x2f,
	0x63, 0x6e, 0x6e, 0x2f, 0x53, 0x74, 0x61, 0x74, 0x65, 0x66, 0x75, 0x6c,
	0x50, 0x61, 0x72, 0x74, 0x69, 0x74, 0x69, 0x6f, 0x6e, 0x65, 0x64, 0x43,
	0x61, 0x6c, 0x6c, 0x2f, 0x63, 0x6f, 0x6e, 0x76, 0x32, 0x64, 0x2f, 0x43,
	0x6f, 0x6e, 0x76, 0x32, 0x44, 0x3b, 0x75, 0x6e, 0x6b, 0x6e, 0x6f, 0x77,
	0x6e, 0x5f, 0x30, 0x00, 0x04, 0x00, 0x00, 0x00, 0x01, 0x00, 0x00, 0x00,
	0x18, 0x00, 0x00, 0x00, 0x18, 0x00, 0x00, 0x00, 0x08, 0x00, 0x00, 0x00,
	0xf2, 0xf8, 0xff, 0xff, 0x00, 0x00, 0x00, 0x02, 0x58, 0x01, 0x00, 0x00,
	0x07, 0x00, 0x00, 0x00, 0x98, 0x00, 0x00, 0x00, 0x04, 0x00, 0x00, 0x00,
	0xe4, 0xf8, 0xff, 0xff, 0x60, 0x00, 0x00, 0x00, 0x04, 0x00, 0x00, 0x00,
	0x0a, 0x00, 0x00, 0x00, 0x00, 0x00, 0x00, 0x00, 0x00, 0x00, 0x00, 0x00,
	0x00, 0x00, 0x00, 0x00, 0x00, 0x00, 0x00, 0x00, 0x00, 0x00, 0x00, 0x00,
	0x00, 0x00, 0x00, 0x00, 0x00, 0x00, 0x00, 0x00, 0x00, 0x00, 0x00, 0x00,
	0x00, 0x00, 0x00, 0x00, 0x00, 0x00, 0x00, 0x00, 0x00, 0x00, 0x00, 0x00,
	0x00, 0x00, 0x00, 0x00, 0x00, 0x00, 0x00, 0x00, 0x00, 0x00, 0x00, 0x00,
	0x00, 0x00, 0x00, 0x00, 0x00, 0x00, 0x00, 0x00, 0x00, 0x00, 0x00, 0x00,
	0x00, 0x00, 0x00, 0x00, 0x00, 0x00, 0x00, 0x00, 0x00, 0x00, 0x00, 0x00,
	0x00, 0x00, 0x00, 0x00, 0x0a, 0x00, 0x00, 0x00, 0x7a, 0x36, 0x3c, 0x3a,
	0x4f, 0x47, 0x4d, 0x3a, 0xd7, 0xfb, 0x2b, 0x3a, 0x80, 0x4e, 0x05, 0x3a,
	0x85, 0x5e, 0x8a, 0x3a, 0x6b, 0xf4, 0x39, 0x3a, 0x7b, 0xdc, 0x7d, 0x3a,
	0x9b, 0x65, 0x0b, 0x3a, 0xf3, 0x9e, 0x1b, 0x3a, 0x02, 0x39, 0x56, 0x3a,
	0xb3, 0x00, 0x00, 0x00, 0x63, 0x6f, 0x6e, 0x76, 0x32, 0x64, 0x5f, 0x32,
	0x2f, 0x42, 0x69, 0x61, 0x73, 0x41, 0x64, 0x64, 0x3b, 0x53, 0x74, 0x61,
	0x74, 0x65, 0x66, 0x75, 0x6c, 0x50, 0x61, 0x72, 0x74, 0x69, 0x74, 0x69,
	0x6f, 0x6e, 0x65, 0x64, 0x43, 0x61, 0x6c, 0x6c, 0x2f, 0x63, 0x6e, 0x6e,
	0x2f, 0x53, 0x74, 0x61, 0x74, 0x65, 0x66, 0x75, 0x6c, 0x50, 0x61, 0x72,
	0x74, 0x69, 0x74, 0x69, 0x6f, 0x6e, 0x65, 0x64, 0x43, 0x61, 0x6c, 0x6c,
	0x2f, 0x63, 0x6f, 0x6e, 0x76, 0x32, 0x64, 0x5f, 0x32, 0x2f, 0x42, 0x69,
	0x61, 0x73, 0x41, 0x64, 0x64, 0x3b, 0x63, 0x6f, 0x6e, 0x76, 0x32, 0x64,
	0x5f, 0x32, 0x2f, 0x43, 0x6f, 0x6e, 0x76, 0x32, 0x44, 0x3b, 0x53, 0x74,
	0x61, 0x74, 0x65, 0x66, 0x75, 0x6c, 0x50, 0x61, 0x72, 0x74, 0x69, 0x74,
	0x69, 0x6f, 0x6e, 0x65, 0x64, 0x43, 0x61, 0x6c, 0x6c, 0x2f, 0x63, 0x6e,
	0x6e, 0x2f, 0x53, 0x74, 0x61, 0x74, 0x65, 0x66, 0x75, 0x6c, 0x50, 0x61,
	0x72, 0x74, 0x69, 0x74, 0x69, 0x6f, 0x6e, 0x65, 0x64, 0x43, 0x61, 0x6c,
	0x6c, 0x2f, 0x63, 0x6f, 0x6e, 0x76, 0x32, 0x64, 0x5f, 0x32, 0x2f, 0x43,
	0x6f, 0x6e, 0x76, 0x32, 0x44, 0x3b, 0x75, 0x6e, 0x6b, 0x6e, 0x6f, 0x77,
	0x6e, 0x5f, 0x34, 0x00, 0x01, 0x00, 0x00, 0x00, 0x0a, 0x00, 0x00, 0x00,
	0x5a, 0xfa, 0xff, 0xff, 0x00, 0x00, 0x00, 0x09, 0x54, 0x01, 0x00, 0x00,
	0x06, 0x00, 0x00, 0x00, 0xf4, 0x00, 0x00, 0x00, 0x04, 0x00, 0x00, 0x00,
	0x6c, 0xf9, 0xff, 0xff, 0xbc, 0x00, 0x00, 0x00, 0x8c, 0x00, 0x00, 0x00,
	0x5c, 0x00, 0x00, 0x00, 0x04, 0x00, 0x00, 0x00, 0x0a, 0x00, 0x00, 0x00,
	0x00, 0x00, 0x00, 0x00, 0x00, 0x00, 0x00, 0x00, 0x00, 0x00, 0x00, 0x00,
	0x00, 0x00, 0x00, 0x00, 0x00, 0x00, 0x00, 0x00, 0x00, 0x00, 0x00, 0x00,
	0x00, 0x00, 0x00, 0x00, 0x00, 0x00, 0x00, 0x00, 0x00, 0x00, 0x00, 0x00,
	0x00, 0x00, 0x00, 0x00, 0x00, 0x00, 0x00, 0x00, 0x00, 0x00, 0x00, 0x00,
	0x00, 0x00, 0x00, 0x00, 0x00, 0x00, 0x00, 0x00, 0x00, 0x00, 0x00, 0x00,
	0x00, 0x00, 0x00, 0x00, 0x00, 0x00, 0x00, 0x00, 0x00, 0x00, 0x00, 0x00,
	0x00, 0x00, 0x00, 0x00, 0x00, 0x00, 0x00, 0x00, 0x0a, 0x00, 0x00, 0x00,
	0x21, 0xcf, 0x1d, 0x3b, 0x39, 0x1e, 0x2c, 0x3b, 0xa1, 0x33, 0x10, 0x3b,
	0x7b, 0x8b, 0xdf, 0x3a, 0xcd, 0x08, 0x68, 0x3b, 0x73, 0xea, 0x1b, 0x3b,
	0x4f, 0xda, 0x54, 0x3b, 0xfa, 0xc1, 0xe9, 0x3a, 0x68, 0x7b, 0x02, 0x3b,
	0x0c, 0x9e, 0x33, 0x3b, 0x0a, 0x00, 0x00, 0x00, 0xc4, 0xa3, 0x26, 0x3e,
	0xfd, 0xc5, 0xaa, 0x3e, 0x3a, 0x13, 0x8f, 0x3e, 0x64, 0xcc, 0x5d, 0x3e,
	0xe9, 0xdd, 0x4f, 0x3e, 0x2f, 0xc1, 0x60, 0x3e, 0x77, 0xe8, 0x4f, 0x3e,
	0x54, 0xd8, 0x40, 0x3e, 0x85, 0x87, 0x26, 0x3e, 0x4d, 0xb3, 0x4f, 0x3e,
	0x0a, 0x00, 0x00, 0x00, 0x83, 0x93, 0x9c, 0xbe, 0x77, 0xd7, 0x9f, 0xbe,
	0xbc, 0xc2, 0x8d, 0xbe, 0x39, 0x00, 0x58, 0xbe, 0xbb, 0x38, 0xe6, 0xbe,
	0x9e, 0xb2, 0x9a, 0xbe, 0x9a, 0x30, 0xd3, 0xbe, 0x76, 0xee, 0x67, 0xbe,
	0x71, 0x76, 0x81, 0xbe, 0xd0, 0x36, 0xb2, 0xbe, 0x53, 0x00, 0x00, 0x00,
	0x63, 0x6f, 0x6e, 0x76, 0x32, 0x64, 0x5f, 0x32, 0x2f, 0x43, 0x6f, 0x6e,
	0x76, 0x32, 0x44, 0x3b, 0x53, 0x74, 0x61, 0x74, 0x65, 0x66, 0x75, 0x6c,
	0x50, 0x61, 0x72, 0x74, 0x69, 0x74, 0x69, 0x6f, 0x6e, 0x65, 0x64, 0x43,
	0x61, 0x6c, 0x6c, 0x2f, 0x63, 0x6e, 0x6e, 0x2f, 0x53, 0x74, 0x61, 0x74,
	0x65, 0x66, 0x75, 0x6c, 0x50, 0x61, 0x72, 0x74, 0x69, 0x74, 0x69, 0x6f,
	0x6e, 0x65, 0x64, 0x43, 0x61, 0x6c, 0x6c, 0x2f, 0x63, 0x6f, 0x6e, 0x76,
	0x32, 0x64, 0x5f, 0x32, 0x2f, 0x43, 0x6f, 0x6e, 0x76, 0x32, 0x44, 0x00,
	0x04, 0x00, 0x00, 0x00, 0x0a, 0x00, 0x00, 0x00, 0x04, 0x00, 0x00, 0x00,
	0x04, 0x00, 0x00, 0x00, 0x10, 0x00, 0x00, 0x00, 0xca, 0xfb, 0xff, 0xff,
	0x00, 0x00, 0x00, 0x09, 0xcc, 0x01, 0x00, 0x00, 0x05, 0x00, 0x00, 0x00,
	0x6c, 0x01, 0x00, 0x00, 0x04, 0x00, 0x00, 0x00, 0xdc, 0xfa, 0xff, 0xff,
	0x1c, 0x01, 0x00, 0x00, 0xd4, 0x00, 0x00, 0x00, 0x8c, 0x00, 0x00, 0x00,
	0x04, 0x00, 0x00, 0x00, 0x10, 0x00, 0x00, 0x00, 0x00, 0x00, 0x00, 0x00,
	0x00, 0x00, 0x00, 0x00, 0x00, 0x00, 0x00, 0x00, 0x00, 0x00, 0x00, 0x00,
	0x00, 0x00, 0x00, 0x00, 0x00, 0x00, 0x00, 0x00, 0x00, 0x00, 0x00, 0x00,
	0x00, 0x00, 0x00, 0x00, 0x00, 0x00, 0x00, 0x00, 0x00, 0x00, 0x00, 0x00,
	0x00, 0x00, 0x00, 0x00, 0x00, 0x00, 0x00, 0x00, 0x00, 0x00, 0x00, 0x00,
	0x00, 0x00, 0x00, 0x00, 0x00, 0x00, 0x00, 0x00, 0x00, 0x00, 0x00, 0x00,
	0x00, 0x00, 0x00, 0x00, 0x00, 0x00, 0x00, 0x00, 0x00, 0x00, 0x00, 0x00,
	0x00, 0x00, 0x00, 0x00, 0x00, 0x00, 0x00, 0x00, 0x00, 0x00, 0x00, 0x00,
	0x00, 0x00, 0x00, 0x00, 0x00, 0x00, 0x00, 0x00, 0x00, 0x00, 0x00, 0x00,
	0x00, 0x00, 0x00, 0x00, 0x00, 0x00, 0x00, 0x00, 0x00, 0x00, 0x00, 0x00,
	0x00, 0x00, 0x00, 0x00, 0x00, 0x00, 0x00, 0x00, 0x00, 0x00, 0x00, 0x00,
	0x00, 0x00, 0x00, 0x00, 0x10, 0x00, 0x00, 0x00, 0x25, 0x9d, 0xde, 0x3a,
	0x08, 0x78, 0x15, 0x3b, 0x06, 0x1a, 0xe7, 0x3a, 0xb5, 0x64, 0xca, 0x3a,
	0x5d, 0x1d, 0xba, 0x3a, 0xce, 0xff, 0xfa, 0x3a, 0x96, 0x3b, 0xc7, 0x3a,
	0xf4, 0xeb, 0xf5, 0x3a, 0x76, 0x46, 0xc3, 0x3a, 0x41, 0x0c, 0x02, 0x3b,
	0xd2, 0x26, 0xe6, 0x3a, 0x5f, 0x7e, 0xdd, 0x3a, 0xe3, 0x50, 0xe9, 0x3a,
	0x8a, 0x70, 0xe8, 0x3a, 0x83, 0x47, 0xaa, 0x3a, 0x28, 0x04, 0x00, 0x3b,
	0x10, 0x00, 0x00, 0x00, 0x89, 0x57, 0x1c, 0x3e, 0x48, 0x4d, 0x10, 0x3e,
	0xc8, 0xdd, 0x24, 0x3e, 0xea, 0xdb, 0x38, 0x3e, 0x72, 0x29, 0xed, 0x3d,
	0x52, 0x78, 0x16, 0x3e, 0xbc, 0x22, 0x23, 0x3e, 0x22, 0x73, 0x07, 0x3e,
	0xe8, 0xf7, 0x26, 0x3e, 0xc1, 0xa4, 0x73, 0x3e, 0xb0, 0x71, 0x3c, 0x3e,
	0x69, 0x71, 0x16, 0x3e, 0x1d, 0x38, 0x1d, 0x3e, 0x41, 0xfd, 0x14, 0x3e,
	0x6f, 0x55, 0x18, 0x3e, 0x30, 0x13, 0x2e, 0x3e, 0x10, 0x00, 0x00, 0x00,
	0xeb, 0xdf, 0x5c, 0xbe, 0x18, 0x4d, 0x94, 0xbe, 0xd2, 0x4b, 0x65, 0xbe,
	0xec, 0xcf, 0x48, 0xbe, 0x22, 0xa9, 0x38, 0xbe, 0xce, 0x09, 0x79, 0xbe,
	0x1f, 0xad, 0x45, 0xbe, 0x1c, 0x00, 0x74, 0xbe, 0xe9, 0xbf, 0x41, 0xbe,
	0x28, 0x08, 0x81, 0xbe, 0x84, 0x5a, 0x64, 0xbe, 0x62, 0xc3, 0x5b, 0xbe,
	0x41, 0x7e, 0x67, 0xbe, 0xa9, 0x9f, 0x66, 0xbe, 0xf4, 0xf2, 0x28, 0xbe,
	0x3f, 0x08, 0x7e, 0xbe, 0x53, 0x00, 0x00, 0x00, 0x63, 0x6f, 0x6e, 0x76,
	0x32, 0x64, 0x5f, 0x31, 0x2f, 0x43, 0x6f, 0x6e, 0x76, 0x32, 0x44, 0x3b,
	0x53, 0x74, 0x61, 0x74, 0x65, 0x66, 0x75, 0x6c, 0x50, 0x61, 0x72, 0x74,
	0x69, 0x74, 0x69, 0x6f, 0x6e, 0x65, 0x64, 0x43, 0x61, 0x6c, 0x6c, 0x2f,
	0x63, 0x6e, 0x6e, 0x2f, 0x53, 0x74, 0x61, 0x74, 0x65, 0x66, 0x75, 0x6c,
	0x50, 0x61, 0x72, 0x74, 0x69, 0x74, 0x69, 0x6f, 0x6e, 0x65, 0x64, 0x43,
	0x61, 0x6c, 0x6c, 0x2f, 0x63, 0x6f, 0x6e, 0x76, 0x32, 0x64, 0x5f, 0x31,
	0x2f, 0x43, 0x6f, 0x6e, 0x76, 0x32, 0x44, 0x00, 0x04, 0x00, 0x00, 0x00,
	0x10, 0x00, 0x00, 0x00, 0x05, 0x00, 0x00, 0x00, 0x05, 0x00, 0x00, 0x00,
	0x08, 0x00, 0x00, 0x00, 0xb2, 0xfd, 0xff, 0xff, 0x00, 0x00, 0x00, 0x09,
	0x2c, 0x01, 0x00, 0x00, 0x04, 0x00, 0x00, 0x00, 0xd0, 0x00, 0x00, 0x00,
	0x04, 0x00, 0x00, 0x00, 0xc4, 0xfc, 0xff, 0xff, 0xa0, 0x00, 0x00, 0x00,
	0x78, 0x00, 0x00, 0x00, 0x50, 0x00, 0x00, 0x00, 0x04, 0x00, 0x00, 0x00,
	0x08, 0x00, 0x00, 0x00, 0x00, 0x00, 0x00, 0x00, 0x00, 0x00, 0x00, 0x00,
	0x00, 0x00, 0x00, 0x00, 0x00, 0x00, 0x00, 0x00, 0x00, 0x00, 0x00, 0x00,
	0x00, 0x00, 0x00, 0x00, 0x00, 0x00, 0x00, 0x00, 0x00, 0x00, 0x00, 0x00,
	0x00, 0x00, 0x00, 0x00, 0x00, 0x00, 0x00, 0x00, 0x00, 0x00, 0x00, 0x00,
	0x00, 0x00, 0x00, 0x00, 0x00, 0x00, 0x00, 0x00, 0x00, 0x00, 0x00, 0x00,
	0x00, 0x00, 0x00, 0x00, 0x00, 0x00, 0x00, 0x00, 0x00, 0x00, 0x00, 0x00,
	0x08, 0x00, 0x00, 0x00, 0x95, 0x98, 0x5c, 0x3a, 0x10, 0xf3, 0x68, 0x3a,
	0xc7, 0xd1, 0x65, 0x3a, 0x5e, 0x52, 0x7f, 0x3a, 0x32, 0xda, 0x65, 0x3a,
	0xf6, 0xa4, 0x8a, 0x3a, 0xd2, 0x5b, 0x55, 0x3a, 0xaa, 0xdb, 0x5c, 0x3a,
	0x08, 0x00, 0x00, 0x00, 0x6a, 0xf1, 0xb5, 0x3d, 0x2a, 0x21, 0xe7, 0x3d,
	0xaa, 0xf2, 0xdb, 0x3d, 0xb9, 0x53, 0xfd, 0x3d, 0x7e, 0x0e, 0xe4, 0x3d,
	0xac, 0x8f, 0x09, 0x3e, 0x1a, 0xb1, 0xd3, 0x3d, 0xb1, 0x7f, 0xc6, 0x3d,
	0x08, 0x00, 0x00, 0x00, 0x64, 0xdf, 0xda, 0xbd, 0x40, 0x57, 0xd0, 0xbd,
	0x23, 0x06, 0xe4, 0xbd, 0x37, 0x18, 0xc7, 0xbd, 0xbb, 0xb7, 0x9e, 0xbd,
	0xf2, 0x30, 0xe3, 0xbd, 0xd9, 0x40, 0xca, 0xbd, 0xf3, 0x21, 0xdb, 0xbd,
	0x4f, 0x00, 0x00, 0x00, 0x63, 0x6f, 0x6e, 0x76, 0x32, 0x64, 0x2f, 0x43,
	0x6f, 0x6e, 0x76, 0x32, 0x44, 0x3b, 0x53, 0x74, 0x61, 0x74, 0x65, 0x66,
	0x75, 0x6c, 0x50, 0x61, 0x72, 0x74, 0x69, 0x74, 0x69, 0x6f, 0x6e, 0x65,
	0x64, 0x43, 0x61, 0x6c, 0x6c, 0x2f, 0x63, 0x6e, 0x6e, 0x2f, 0x53, 0x74,
	0x61, 0x74, 0x65, 0x66, 0x75, 0x6c, 0x50, 0x61, 0x72, 0x74, 0x69, 0x74,
	0x69, 0x6f, 0x6e, 0x65, 0x64, 0x43, 0x61, 0x6c, 0x6c, 0x2f, 0x63, 0x6f,
	0x6e, 0x76, 0x32, 0x64, 0x2f, 0x43, 0x6f, 0x6e, 0x76, 0x32, 0x44, 0x00,
	0x04, 0x00, 0x00, 0x00, 0x08, 0x00, 0x00, 0x00, 0x05, 0x00, 0x00, 0x00,
	0x05, 0x00, 0x00, 0x00, 0x01, 0x00, 0x00, 0x00, 0xfa, 0xfe, 0xff, 0xff,
	0x00, 0x00, 0x00, 0x02, 0xf4, 0x00, 0x00, 0x00, 0x03, 0x00, 0x00, 0x00,
	0xdc, 0x00, 0x00, 0x00, 0x04, 0x00, 0x00, 0x00, 0xec, 0xfe, 0xff, 0xff,
	0x8c, 0x00, 0x00, 0x00, 0x04, 0x00, 0x00, 0x00, 0x10, 0x00, 0x00, 0x00,
	0x00, 0x00, 0x00, 0x00, 0x00, 0x00, 0x00, 0x00, 0x00, 0x00, 0x00, 0x00,
	0x00, 0x00, 0x00, 0x00, 0x00, 0x00, 0x00, 0x00, 0x00, 0x00, 0x00, 0x00,
	0x00, 0x00, 0x00, 0x00, 0x00, 0x00, 0x00, 0x00, 0x00, 0x00, 0x00, 0x00,
	0x00, 0x00, 0x00, 0x00, 0x00, 0x00, 0x00, 0x00, 0x00, 0x00, 0x00, 0x00,
	0x00, 0x00, 0x00, 0x00, 0x00, 0x00, 0x00, 0x00, 0x00, 0x00, 0x00, 0x00,
	0x00, 0x00, 0x00, 0x00, 0x00, 0x00, 0x00, 0x00, 0x00, 0x00, 0x00, 0x00,
	0x00, 0x00, 0x00, 0x00, 0x00, 0x00, 0x00, 0x00, 0x00, 0x00, 0x00, 0x00,
	0x00, 0x00, 0x00, 0x00, 0x00, 0x00, 0x00, 0x00, 0x00, 0x00, 0x00, 0x00,
	0x00, 0x00, 0x00, 0x00, 0x00, 0x00, 0x00, 0x00, 0x00, 0x00, 0x00, 0x00,
	0x00, 0x00, 0x00, 0x00, 0x00, 0x00, 0x00, 0x00, 0x00, 0x00, 0x00, 0x00,
	0x00, 0x00, 0x00, 0x00, 0x00, 0x00, 0x00, 0x00, 0x10, 0x00, 0x00, 0x00,
	0x42, 0x6a, 0x3d, 0x3a, 0x4e, 0x5b, 0x7e, 0x3a, 0x18, 0xa3, 0x44, 0x3a,
	0xcb, 0x35, 0x2c, 0x3a, 0xee, 0x5b, 0x1e, 0x3a, 0x3b, 0x91, 0x55, 0x3a,
	0x56, 0x85, 0x29, 0x3a, 0x3a, 0x3f, 0x51, 0x3a, 0x4d, 0x27, 0x26, 0x3a,
	0xa6, 0x4e, 0x5d, 0x3a, 0x29, 0xd4, 0x43, 0x3a, 0x41, 0x76, 0x3c, 0x3a,
	0x6b, 0x85, 0x46, 0x3a, 0x87, 0xc6, 0x45, 0x3a, 0xa3, 0xe2, 0x10, 0x3a,
	0x95, 0xd9, 0x59, 0x3a, 0x09, 0x00, 0x00, 0x00, 0x75, 0x6e, 0x6b, 0x6e,
	0x6f, 0x77, 0x6e, 0x5f, 0x32, 0x00, 0x00, 0x00, 0x01, 0x00, 0x00, 0x00,
	0x10, 0x00, 0x00, 0x00, 0x00, 0x00, 0x0e, 0x00, 0x18, 0x00, 0x08, 0x00,
	0x07, 0x00, 0x0c, 0x00, 0x10, 0x00, 0x14, 0x00, 0x0e, 0x00, 0x00, 0x00,
	0x00, 0x00, 0x00, 0x02, 0xa4, 0x00, 0x00, 0x00, 0x02, 0x00, 0x00, 0x00,
	0x8c, 0x00, 0x00, 0x00, 0x10, 0x00, 0x00, 0x00, 0x0c, 0x00, 0x0c, 0x00,
	0x00, 0x00, 0x00, 0x00, 0x04, 0x00, 0x08, 0x00, 0x0c, 0x00, 0x00, 0x00,
	0x50, 0x00, 0x00, 0x00, 0x04, 0x00, 0x00, 0x00, 0x08, 0x00, 0x00, 0x00,
	0x00, 0x00, 0x00, 0x00, 0x00, 0x00, 0x00, 0x00, 0x00, 0x00, 0x00, 0x00,
	0x00, 0x00, 0x00, 0x00, 0x00, 0x00, 0x00, 0x00, 0x00, 0x00, 0x00, 0x00,
	0x00, 0x00, 0x00, 0x00, 0x00, 0x00, 0x00, 0x00, 0x00, 0x00, 0x00, 0x00,
	0x00, 0x00, 0x00, 0x00, 0x00, 0x00, 0x00, 0x00, 0x00, 0x00, 0x00, 0x00,
	0x00, 0x00, 0x00, 0x00, 0x00, 0x00, 0x00, 0x00, 0x00, 0x00, 0x00, 0x00,
	0x00, 0x00, 0x00, 0x00, 0x00, 0x00, 0x00, 0x00, 0x08, 0x00, 0x00, 0x00,
	0x95, 0x98, 0x5c, 0x3a, 0x10, 0xf3, 0x68, 0x3a, 0xc7, 0xd1, 0x65, 0x3a,
	0x5e, 0x52, 0x7f, 0x3a, 0x32, 0xda, 0x65, 0x3a, 0xf6, 0xa4, 0x8a, 0x3a,
	0xd2, 0x5b, 0x55, 0x3a, 0xaa, 0xdb, 0x5c, 0x3a, 0x09, 0x00, 0x00, 0x00,
	0x75, 0x6e, 0x6b, 0x6e, 0x6f, 0x77, 0x6e, 0x5f, 0x30, 0x00, 0x00, 0x00,
	0x01, 0x00, 0x00, 0x00, 0x08, 0x00, 0x00, 0x00, 0x14, 0x00, 0x1c, 0x00,
	0x08, 0x00, 0x07, 0x00, 0x0c, 0x00, 0x10, 0x00, 0x14, 0x00, 0x00, 0x00,
	0x00, 0x00, 0x18, 0x00, 0x14, 0x00, 0x00, 0x00, 0x00, 0x00, 0x00, 0x09,
	0x7c, 0x00, 0x00, 0x00, 0x01, 0x00, 0x00, 0x00, 0x68, 0x00, 0x00, 0x00,
	0x28, 0x00, 0x00, 0x00, 0x04, 0x00, 0x00, 0x00, 0x04, 0x00, 0x00, 0x00,
	0xff, 0xff, 0xff, 0xff, 0x1c, 0x00, 0x00, 0x00, 0x1c, 0x00, 0x00, 0x00,
	0x01, 0x00, 0x00, 0x00, 0x0c, 0x00, 0x14, 0x00, 0x04, 0x00, 0x08, 0x00,
	0x0c, 0x00, 0x10, 0x00, 0x0c, 0x00, 0x00, 0x00, 0x30, 0x00, 0x00, 0x00,
	0x24, 0x00, 0x00, 0x00, 0x18, 0x00, 0x00, 0x00, 0x04, 0x00, 0x00, 0x00,
	0x01, 0x00, 0x00, 0x00, 0x00, 0x00, 0x00, 0x00, 0x00, 0x00, 0x00, 0x00,
	0x00, 0x00, 0x00, 0x00, 0x01, 0x00, 0x00, 0x00, 0x00, 0x00, 0x80, 0x3f,
	0x01, 0x00, 0x00, 0x00, 0x00, 0x00, 0xfe, 0x42, 0x01, 0x00, 0x00, 0x00,
	0x00, 0x00, 0x00, 0xc3, 0x07, 0x00, 0x00, 0x00, 0x69, 0x6e, 0x70, 0x75,
	0x74, 0x5f, 0x31, 0x00, 0x04, 0x00, 0x00, 0x00, 0x01, 0x00, 0x00, 0x00,
	0x1c, 0x00, 0x00, 0x00, 0x1c, 0x00, 0x00, 0x00, 0x01, 0x00, 0x00, 0x00,
	0x03, 0x00, 0x00, 0x00, 0x3c, 0x00, 0x00, 0x00, 0x20, 0x00, 0x00, 0x00,
	0x04, 0x00, 0x00, 0x00, 0xf2, 0xff, 0xff, 0xff, 0x00, 0x00, 0x00, 0x19,
	0x02, 0x00, 0x00, 0x00, 0x00, 0x00, 0x0a, 0x00, 0x0e, 0x00, 0x07, 0x00,
	0x00, 0x00, 0x08, 0x00, 0x0a, 0x00, 0x00, 0x00, 0x00, 0x00, 0x00, 0x11,
	0x02, 0x00, 0x00, 0x00, 0x00, 0x00, 0x0a, 0x00, 0x0c, 0x00, 0x07, 0x00,
	0x00, 0x00, 0x08, 0x00, 0x0a, 0x00, 0x00, 0x00, 0x00, 0x00, 0x00, 0x03,
	0x03, 0x00, 0x00, 0x00


};
unsigned int mnist_dynamic_quantized_28x28_tflite_len = 11104;
